[PAD]	0
[UNK]	0
[BOS]	0
[EOS]	0
▁t	-0
he	-1
▁a	-2
ou	-3
in	-4
re	-5
▁w	-6
▁s	-7
▁I	-8
▁5	-9
is	-10
▁m	-11
ha	-12
on	-13
▁b	-14
▁y	-15
▁2	-16
▁the	-17
▁6	-18
▁1	-19
▁4	-20
▁to	-21
▁我	-22
▁you	-23
▁c	-24
▁d	-25
ve	-26
▁3	-27
▁l	-28
▁f	-29
an	-30
ing	-31
om	-32
or	-33
ll	-34
it	-35
▁T	-36
en	-37
er	-38
▁p	-39
▁n	-40
ea	-41
▁g	-42
79	-43
ed	-44
▁h	-45
▁ha	-46
▁o	-47
▁is	-48
st	-49
10	-50
▁你	-51
ay	-52
▁佢	-53
53	-54
hat	-55
ot	-56
ow	-57
▁W	-58
76	-59
73	-60
et	-61
▁in	-62
70	-63
▁H	-64
es	-65
▁he	-66
▁of	-67
85	-68
ar	-69
at	-70
74	-71
▁th	-72
82	-73
95	-74
86	-75
92	-76
▁an	-77
75	-78
94	-79
ld	-80
le	-81
72	-82
id	-83
▁be	-84
ke	-85
96	-86
16	-87
12	-88
32	-89
oo	-90
84	-91
se	-92
▁me	-93
im	-94
as	-95
▁on	-96
▁The	-97
06	-98
ic	-99
▁do	-100
▁for	-101
35	-102
00	-103
36	-104
71	-105
88	-106
▁u	-107
▁He	-108
▁S	-109
44	-110
gh	-111
ver	-112
▁li	-113
▁re	-114
▁that	-115
46	-116
▁e	-117
▁st	-118
15	-119
▁it	-120
02	-121
ch	-122
89	-123
ut	-124
▁have	-125
▁not	-126
45	-127
03	-128
78	-129
▁D	-130
▁r	-131
11	-132
ome	-133
▁we	-134
▁610	-135
her	-136
▁are	-137
ght	-138
09	-139
ent	-140
▁your	-141
▁my	-142
▁was	-143
▁64	-144
▁Tom	-145
▁Y	-146
ly	-147
ill	-148
ould	-149
ad	-150
ant	-151
▁go	-152
am	-153
al	-154
13	-155
05	-156
▁k	-157
22	-158
▁this	-159
93	-160
▁You	-161
83	-162
▁M	-163
ir	-164
out	-165
77	-166
▁can	-167
ith	-168
▁don	-169
▁at	-170
▁and	-171
26	-172
ear	-173
ri	-174
▁我哋	-175
ook	-176
▁with	-177
▁A	-178
all	-179
ce	-180
▁25	-181
ter	-182
99	-183
18	-184
▁C	-185
04	-186
14	-187
▁as	-188
▁579	-189
▁573	-190
▁53	-191
66	-192
▁like	-193
▁ne	-194
19	-195
now	-196
one	-197
op	-198
ion	-199
▁呢	-200
25	-201
ore	-202
可以	-203
▁It	-204
鍾意	-205
if	-206
▁did	-207
ur	-208
▁We	-209
nd	-210
▁know	-211
▁want	-212
唔好	-213
ight	-214
▁24	-215
▁sp	-216
ry	-217
08	-218
24	-219
very	-220
▁his	-221
ck	-222
▁46	-223
ee	-224
▁so	-225
▁pl	-226
ake	-227
▁him	-228
ast	-229
▁She	-230
23	-231
▁79	-232
han	-233
ho	-234
th	-235
ust	-236
ain	-237
▁wor	-238
▁26	-239
01	-240
▁"	-241
唔係	-242
Tom	-243
▁45	-244
▁bu	-245
ct	-246
▁su	-247
ink	-248
98	-249
▁j	-250
▁What	-251
▁9	-252
▁576	-253
ood	-254
▁70	-255
ge	-256
▁sh	-257
▁up	-258
end	-259
一個	-260
▁tim	-261
ell	-262
ist	-263
▁10	-264
▁her	-265
33	-266
day	-267
hen	-268
▁Do	-269
54	-270
▁L	-271
ive	-272
▁阿	-273
eat	-274
91	-275
▁al	-276
▁but	-277
ap	-278
ro	-279
▁time	-280
17	-281
▁8	-282
here	-283
▁get	-284
我哋	-285
▁535	-286
▁will	-287
34	-288
65	-289
▁ab	-290
▁E	-291
▁15	-292
▁Th	-293
▁any	-294
▁has	-295
ul	-296
ays	-297
ong	-298
唔可以	-299
嗰陣	-300
▁had	-301
▁out	-302
our	-303
但係	-304
▁56	-305
il	-306
▁lo	-307
▁我唔	-308
▁what	-309
ary	-310
▁all	-311
▁This	-312
▁think	-313
ind	-314
ish	-315
pp	-316
▁ex	-317
est	-318
ren	-319
90	-320
hy	-321
red	-322
▁by	-323
▁mu	-324
▁How	-325
▁than	-326
ble	-327
rom	-328
▁us	-329
如果	-330
ame	-331
▁13	-332
自己	-333
28	-334
ng	-335
屋企	-336
▁man	-337
ree	-338
可唔可以	-339
97	-340
▁no	-341
▁tr	-342
▁book	-343
▁co	-344
▁home	-345
好多	-346
▁My	-347
40	-348
▁eat	-349
▁car	-350
▁she	-351
▁here	-352
lf	-353
㗎喇	-354
and	-355
king	-356
▁too	-357
▁P	-358
▁If	-359
▁sa	-360
▁唔好	-361
▁com	-362
▁see	-363
▁B	-364
▁106	-365
▁Don	-366
48	-367
49	-368
55	-369
hi	-370
ease	-371
other	-372
▁There	-373
▁about	-374
63	-375
20	-376
俾我	-377
▁would	-378
87	-379
應該	-380
▁or	-381
ie	-382
而家	-383
▁16	-384
▁60	-385
▁如果	-386
81	-387
▁N	-388
▁if	-389
ally	-390
hing	-391
▁one	-392
826	-393
▁very	-394
▁there	-395
res	-396
好似	-397
▁good	-398
43	-399
真係	-400
ice	-401
▁ar	-402
▁look	-403
21	-404
qu	-405
▁didn	-406
ig	-407
▁does	-408
▁spea	-409
▁J	-410
唔知	-411
ers	-412
row	-413
▁int	-414
07	-415
31	-416
eop	-417
▁75	-418
▁95	-419
▁af	-420
▁am	-421
▁tw	-422
eople	-423
▁were	-424
▁when	-425
▁more	-426
au	-427
ep	-428
▁F	-429
唔到	-430
▁594	-431
▁con	-432
▁個	-433
點解	-434
ess	-435
ool	-436
ven	-437
▁ba	-438
▁Why	-439
喺度	-440
▁just	-441
有冇	-442
▁now	-443
▁wat	-444
▁from	-445
62	-446
▁wr	-447
oney	-448
etter	-449
▁much	-450
▁year	-451
▁people	-452
ol	-453
ud	-454
ite	-455
▁19	-456
▁28	-457
▁55	-458
ather	-459
."	-460
ate	-461
▁38	-462
▁ro	-463
▁佢哋	-464
▁read	-465
▁should	-466
um	-467
▁啲	-468
唔會	-469
▁29	-470
▁mo	-471
▁402	-472
▁come	-473
▁some	-474
58	-475
係咪	-476
ick	-477
▁Ch	-478
▁need	-479
▁Where	-480
▁going	-481
▁money	-482
64	-483
ra	-484
▁se	-485
▁tea	-486
▁tell	-487
ak	-488
▁O	-489
已經	-490
ine	-491
▁39	-492
ought	-493
▁last	-494
▁they	-495
▁speak	-496
la	-497
▁G	-498
覺得	-499
邊個	-500
▁18	-501
▁我想	-502
self	-503
▁buy	-504
唔該	-505
▁cl	-506
▁526	-507
▁say	-508
riend	-509
▁every	-510
。」	-511
嗰個	-512
▁61	-513
▁been	-514
▁take	-515
▁could	-516
38	-517
42	-518
嘅嘢	-519
▁59	-520
omet	-521
▁bus	-522
▁They	-523
68	-524
os	-525
今日	-526
啲咩	-527
774	-528
▁11	-529
▁22	-530
▁41	-531
ning	-532
ways	-533
▁153	-534
▁two	-535
▁4826	-536
▁「	-537
喺邊	-538
朋友	-539
art	-540
▁612	-541
▁sch	-542
▁who	-543
ation	-544
▁always	-545
▁v	-546
▁40	-547
▁78	-548
▁en	-549
ough	-550
▁school	-551
50	-552
啲嘢	-553
成日	-554
本書	-555
▁ag	-556
▁Can	-557
▁after	-558
nt	-559
所以	-560
alk	-561
ass	-562
itt	-563
thing	-564
41	-565
lp	-566
嘅人	-567
ound	-568
▁616	-569
orrow	-570
▁有	-571
都係	-572
ave	-573
▁32	-574
▁le	-575
▁day	-576
▁happ	-577
▁live	-578
▁work	-579
un	-580
佢哋	-581
▁14	-582
▁Is	-583
▁bo	-584
▁br	-585
▁qu	-586
▁lea	-587
▁way	-588
29	-589
ft	-590
阿媽	-591
▁23	-592
▁43	-593
▁536	-594
▁648	-595
▁help	-596
▁love	-597
▁53553	-598
▁night	-599
俾你	-600
ous	-601
urn	-602
▁953	-603
▁give	-604
▁61086	-605
▁somet	-606
fe	-607
咗個	-608
▁52	-609
ther	-610
▁386	-611
▁into	-612
▁better	-613
56	-614
us	-615
▁7	-616
呢個	-617
嚟㗎	-618
就會	-619
幾多	-620
ngl	-621
▁sm	-622
ving	-623
▁exp	-624
▁how	-625
▁That	-626
▁When	-627
▁must	-628
時間	-629
禮拜	-630
▁446	-631
▁won	-632
▁4646	-633
▁stud	-634
▁today	-635
mb	-636
ort	-637
▁31	-638
ayla	-639
▁385	-640
▁522	-641
▁lot	-642
▁4544	-643
▁said	-644
▁right	-645
▁something	-646
27	-647
30	-648
唔使	-649
age	-650
▁30	-651
▁dr	-652
ouse	-653
rist	-654
▁570	-655
▁592	-656
▁696	-657
▁long	-658
▁Layla	-659
▁still	-660
▁thing	-661
80	-662
ob	-663
俾人	-664
蕾拉	-665
ang	-666
ide	-667
▁Pl	-668
好鍾意	-669
▁pro	-670
▁6403	-671
▁Engl	-672
▁Mary	-673
▁many	-674
▁only	-675
▁really	-676
61	-677
?"	-678
od	-679
▁嗰	-680
」「	-681
ard	-682
▁35	-683
▁bec	-684
▁new	-685
▁back	-686
▁three	-687
阿爸	-688
電話	-689
753	-690
▁336	-691
▁Are	-692
▁Who	-693
▁ask	-694
▁ear	-695
▁got	-696
▁comp	-697
▁play	-698
▁them	-699
▁doesn	-700
▁house	-701
▁Christ	-702
▁Please	-703
▁father	-704
▁English	-705
ag	-706
唔識	-707
ese	-708
get	-709
own	-710
rive	-711
▁bre	-712
▁5734	-713
▁make	-714
▁room	-715
▁went	-716
52	-717
69	-718
一定	-719
imp	-720
able	-721
▁chi	-722
▁where	-723
60	-724
ff	-725
因為	-726
聖誕	-727
英文	-728
ami	-729
▁34	-730
▁po	-731
▁蕾拉	-732
fore	-733
▁dif	-734
▁5373	-735
▁7832	-736
▁call	-737
▁left	-738
▁child	-739
▁please	-740
開始	-741
745	-742
?」「	-743
ian	-744
ten	-745
▁fa	-746
ause	-747
nder	-748
▁mor	-749
▁off	-750
▁old	-751
▁pre	-752
▁tom	-753
▁lear	-754
▁friend	-755
37	-756
ty	-757
之前	-758
係我	-759
問題	-760
見到	-761
mas	-762
▁132	-763
▁403	-764
▁422	-765
▁Did	-766
▁har	-767
▁over	-768
▁never	-769
▁Christmas	-770
el	-771
ade	-772
are	-773
ise	-774
ity	-775
ure	-776
ried	-777
▁bir	-778
▁gir	-779
▁wee	-780
ester	-781
▁watch	-782
▁morning	-783
ue	-784
hed	-785
uck	-786
▁72	-787
▁ea	-788
▁呢個	-789
ittle	-790
▁6479	-791
▁week	-792
esterday	-793
▁tomorrow	-794
51	-795
59	-796
得好	-797
▁36	-798
▁68	-799
▁ke	-800
▁sc	-801
▁te	-802
▁un	-803
hile	-804
▁477	-805
▁995	-806
▁down	-807
▁hand	-808
▁under	-809
▁before	-810
▁little	-811
▁mother	-812
▁冇	-813
好靚	-814
聽日	-815
開心	-816
ich	-817
ign	-818
▁42	-819
▁71	-820
▁88	-821
▁ad	-822
leep	-823
ress	-824
▁432	-825
▁Let	-826
▁dis	-827
▁our	-828
▁even	-829
▁well	-830
67	-831
og	-832
做咩	-833
去咗	-834
淨係	-835
都會	-836
ect	-837
ens	-838
▁63	-839
ance	-840
▁189	-841
▁400	-842
▁fin	-843
▁ten	-844
▁hard	-845
▁hour	-846
▁told	-847
▁often	-848
▁bought	-849
▁anything	-850
世界	-851
都唔	-852
都好	-853
762	-854
sic	-855
▁點解	-856
個禮拜	-857
▁bea	-858
▁如果你	-859
▁name	-860
▁10645	-861
▁other	-862
▁years	-863
pt	-864
xt	-865
同佢	-866
架車	-867
記得	-868
諗住	-869
邊度	-870
都冇	-871
ark	-872
ult	-873
▁73	-874
▁pr	-875
▁唔該	-876
喺屋企	-877
apan	-878
orry	-879
▁imp	-880
▁soon	-881
▁61084	-882
▁Japan	-883
▁learn	-884
▁because	-885
47	-886
cc	-887
iz	-888
一齊	-889
俾佢	-890
出嚟	-891
呢度	-892
咗你	-893
幾時	-894
意思	-895
883	-896
eel	-897
ope	-898
▁aw	-899
▁sw	-900
▁102	-901
▁410	-902
▁5953	-903
▁teac	-904
▁books	-905
▁drink	-906
可能	-907
就係	-908
買咗	-909
音樂	-910
764	-911
ait	-912
▁58	-913
▁gu	-914
▁hu	-915
ired	-916
ment	-917
▁453	-918
▁cat	-919
▁pay	-920
▁yet	-921
▁6095	-922
▁came	-923
▁find	-924
▁made	-925
▁sing	-926
▁again	-927
▁while	-928
▁yourself	-929
ew	-930
si	-931
▁K	-932
上面	-933
巴士	-934
日本	-935
老師	-936
起身	-937
770	-938
882	-939
944	-940
mer	-941
ost	-942
irst	-943
rent	-944
▁dog	-945
▁gre	-946
▁job	-947
▁may	-948
▁Sami	-949
▁chan	-950
▁feel	-951
▁plan	-952
▁57610	-953
▁你可唔可以	-954
▁underst	-955
ds	-956
同埋	-957
咗我	-958
唔想	-959
尋日	-960
講嘢	-961
間房	-962
ody	-963
▁54	-964
▁66	-965
▁de	-966
▁我好	-967
有好多	-968
rest	-969
▁382	-970
▁470	-971
▁572	-972
▁593	-973
▁647	-974
▁isn	-975
▁5795	-976
▁girl	-977
▁break	-978
▁music	-979
▁enough	-980
▁teacher	-981
▁yesterday	-982
..	-983
lo	-984
同我	-985
森美	-986
走咗	-987
電視	-988
759	-989
▁20	-990
▁No	-991
▁ma	-992
▁pa	-993
▁wh	-994
angu	-995
▁272	-996
▁296	-997
▁min	-998
▁put	-999
▁rem	-1000
▁你有冇	-1001
▁away	-1002
▁meet	-1003
▁water	-1004
▁happen	-1005
咁多	-1006
睇吓	-1007
知道	-1008
716	-1009
743	-1010
766	-1011
926	-1012
ict	-1013
iss	-1014
oth	-1015
▁86	-1016
▁To	-1017
▁我冇	-1018
hone	-1019
▁415	-1020
▁472	-1021
▁523	-1022
▁611	-1023
▁His	-1024
▁app	-1025
▁boy	-1026
rench	-1027
▁1085	-1028
▁5774	-1029
▁Have	-1030
▁next	-1031
▁talk	-1032
▁wait	-1033
▁53753	-1034
▁beaut	-1035
▁first	-1036
▁langu	-1037
▁study	-1038
▁their	-1039
▁world	-1040
▁French	-1041
▁reading	-1042
▁R	-1043
咗佢	-1044
好好	-1045
發生	-1046
細路	-1047
通常	-1048
ace	-1049
der	-1050
ose	-1051
係一個	-1052
ount	-1053
▁395	-1054
▁653	-1055
▁lik	-1056
▁nap	-1057
▁我覺得	-1058
▁5695	-1059
▁lost	-1060
▁prom	-1061
▁took	-1062
▁walk	-1063
▁可唔可以	-1064
▁53745	-1065
▁57386	-1066
▁61044	-1067
▁looking	-1068
▁understand	-1069
57	-1070
ms	-1071
兩個	-1072
啱啱	-1073
嘅話	-1074
782	-1075
840	-1076
eal	-1077
ert	-1078
hes	-1079
les	-1080
▁id	-1081
▁我諗	-1082
ence	-1083
mber	-1084
read	-1085
▁750	-1086
▁1692	-1087
▁food	-1088
▁fore	-1089
▁rain	-1090
▁57053	-1091
▁57300	-1092
▁59492	-1093
▁birth	-1094
▁brother	-1095
▁一	-1096
之後	-1097
咗啲	-1098
我就	-1099
生日	-1100
見過	-1101
間屋	-1102
754	-1103
849	-1104
ork	-1105
▁As	-1106
▁佢好	-1107
成日都	-1108
ever	-1109
ieve	-1110
▁244	-1111
▁292	-1112
▁cry	-1113
▁let	-1114
▁use	-1115
▁5359	-1116
▁5735	-1117
▁6082	-1118
▁7032	-1119
▁pres	-1120
▁sure	-1121
estion	-1122
▁53736	-1123
▁minut	-1124
▁sleep	-1125
▁anyone	-1126
▁arrive	-1127
▁children	-1128
▁question	-1129
ab	-1130
ci	-1131
仲未	-1132
少少	-1133
火車	-1134
005	-1135
843	-1136
845	-1137
ful	-1138
▁33	-1139
▁St	-1140
body	-1141
iful	-1142
ream	-1143
▁145	-1144
▁245	-1145
▁bel	-1146
▁mat	-1147
▁saw	-1148
▁try	-1149
▁5794	-1150
▁cold	-1151
▁diff	-1152
▁mean	-1153
▁pers	-1154
▁such	-1155
▁asked	-1156
▁haven	-1157
▁leave	-1158
▁train	-1159
▁nothing	-1160
▁birthday	-1161
▁language	-1162
▁beautiful	-1163
ac	-1164
li	-1165
▁喺	-1166
全部	-1167
分鐘	-1168
咗一	-1169
尋晚	-1170
有啲	-1171
126	-1172
734	-1173
763	-1174
844	-1175
859	-1176
oke	-1177
pen	-1178
▁In	-1179
▁bl	-1180
▁fo	-1181
返屋企	-1182
Mary	-1183
ctor	-1184
ised	-1185
▁109	-1186
▁110	-1187
▁195	-1188
▁bed	-1189
▁我唔知	-1190
▁2479	-1191
▁5360	-1192
▁door	-1193
▁free	-1194
▁hear	-1195
▁late	-1196
▁唔好意思	-1197
▁sorry	-1198
▁wrong	-1199
▁young	-1200
hn	-1201
ix	-1202
wn	-1203
做嘢	-1204
咖啡	-1205
禮物	-1206
隻狗	-1207
012	-1208
166	-1209
864	-1210
881	-1211
949	-1212
low	-1213
▁85	-1214
▁gr	-1215
▁ta	-1216
一定要	-1217
唔鍾意	-1218
ents	-1219
ffee	-1220
ting	-1221
▁124	-1222
▁253	-1223
▁425	-1224
▁acc	-1225
▁lar	-1226
▁met	-1227
▁rec	-1228
▁我唔係	-1229
▁7986	-1230
▁7996	-1231
▁days	-1232
▁pret	-1233
▁stay	-1234
▁used	-1235
▁47785	-1236
▁79882	-1237
▁person	-1238
▁friends	-1239
br	-1240
up	-1241
乜嘢	-1242
入面	-1243
同你	-1244
女仔	-1245
幫我	-1246
法文	-1247
老豆	-1248
隻貓	-1249
157	-1250
760	-1251
771	-1252
eri	-1253
ner	-1254
ohn	-1255
▁12	-1256
▁ho	-1257
▁你唔	-1258
▁森美	-1259
咗好多	-1260
喺邊度	-1261
akes	-1262
fast	-1263
▁166	-1264
▁206	-1265
▁426	-1266
▁466	-1267
▁575	-1268
▁674	-1269
▁All	-1270
▁May	-1271
▁beg	-1272
▁rep	-1273
▁res	-1274
▁sha	-1275
icult	-1276
ready	-1277
▁keep	-1278
▁real	-1279
▁swim	-1280
▁64875	-1281
▁Every	-1282
▁likes	-1283
▁stand	-1284
▁tired	-1285
▁coffee	-1286
▁things	-1287
▁already	-1288
▁thought	-1289
▁difficult	-1290
▁唔	-1291
▁好	-1292
件事	-1293
啲人	-1294
喺到	-1295
地方	-1296
學校	-1297
定係	-1298
就好	-1299
早餐	-1300
星期	-1301
055	-1302
096	-1303
099	-1304
105	-1305
773	-1306
841	-1307
898	-1308
920	-1309
935	-1310
▁21	-1311
▁TV	-1312
▁gl	-1313
係邊個	-1314
啲咩呀	-1315
會唔會	-1316
知唔知	-1317
4016	-1318
▁why	-1319
▁我鍾意	-1320
aught	-1321
erest	-1322
rents	-1323
▁7066	-1324
▁Some	-1325
▁Your	-1326
▁best	-1327
▁lend	-1328
▁list	-1329
▁turn	-1330
▁wish	-1331
alking	-1332
▁57612	-1333
▁57976	-1334
▁Could	-1335
▁around	-1336
▁breakfast	-1337
mp	-1338
一路	-1339
你個	-1340
其實	-1341
到佢	-1342
大學	-1343
天氣	-1344
未呀	-1345
永遠	-1346
需要	-1347
704	-1348
746	-1349
781	-1350
825	-1351
865	-1352
943	-1353
icy	-1354
ies	-1355
ire	-1356
ize	-1357
und	-1358
▁佢喺	-1359
▁我喺	-1360
但係我	-1361
識唔識	-1362
ated	-1363
▁176	-1364
▁284	-1365
▁325	-1366
▁che	-1367
▁cut	-1368
▁mon	-1369
▁own	-1370
ember	-1371
▁5763	-1372
▁Will	-1373
▁cont	-1374
▁hung	-1375
▁mind	-1376
▁open	-1377
▁part	-1378
▁57334	-1379
▁61271	-1380
▁early	-1381
▁great	-1382
▁place	-1383
▁these	-1384
▁couldn	-1385
▁forget	-1386
▁letter	-1387
▁parents	-1388
▁without	-1389
▁interest	-1390
39	-1391
不過	-1392
以為	-1393
個人	-1394
功課	-1395
咁嘅	-1396
唔多	-1397
多啲	-1398
小心	-1399
最好	-1400
有得	-1401
識講	-1402
返嚟	-1403
醫生	-1404
雖然	-1405
039	-1406
103	-1407
329	-1408
749	-1409
751	-1410
756	-1411
795	-1412
799	-1413
852	-1414
854	-1415
856	-1416
933	-1417
965	-1418
igh	-1419
int	-1420
▁50	-1421
▁82	-1422
▁今日	-1423
▁而家	-1424
唔係好	-1425
hank	-1426
work	-1427
▁224	-1428
▁246	-1429
▁312	-1430
▁433	-1431
▁876	-1432
▁ago	-1433
▁ang	-1434
▁bro	-1435
▁din	-1436
▁hot	-1437
▁mar	-1438
▁mov	-1439
▁sis	-1440
ished	-1441
▁6474	-1442
▁Chin	-1443
▁Does	-1444
▁care	-1445
▁coll	-1446
▁fell	-1447
▁hair	-1448
▁mist	-1449
▁once	-1450
▁tele	-1451
▁57611	-1452
▁61094	-1453
▁doing	-1454
▁large	-1455
▁light	-1456
▁write	-1457
▁sister	-1458
▁believe	-1459
az	-1460
ip	-1461
oy	-1462
sw	-1463
以前	-1464
出街	-1465
唔得	-1466
唱歌	-1467
埋啲	-1468
多謝	-1469
晏覺	-1470
落雨	-1471
附近	-1472
點呀	-1473
000	-1474
107	-1475
456	-1476
768	-1477
798	-1478
861	-1479
899	-1480
918	-1481
945	-1482
ans	-1483
con	-1484
ory	-1485
vel	-1486
▁51	-1487
▁你想	-1488
差唔多	-1489
打電話	-1490
aper	-1491
ract	-1492
▁256	-1493
▁315	-1494
▁373	-1495
▁435	-1496
▁672	-1497
▁954	-1498
▁cha	-1499
▁dri	-1500
▁hat	-1501
▁你應該	-1502
ition	-1503
ually	-1504
▁6103	-1505
▁6961	-1506
▁answ	-1507
▁doll	-1508
▁fish	-1509
▁five	-1510
▁kill	-1511
▁rest	-1512
▁seen	-1513
▁show	-1514
▁word	-1515
▁我唔鍾意	-1516
▁52211	-1517
▁54016	-1518
▁diffe	-1519
▁eaten	-1520
▁phone	-1521
▁start	-1522
▁wants	-1523
▁coming	-1524
▁doctor	-1525
▁minutes	-1526
▁Japanese	-1527
▁homework	-1528
▁remember	-1529
sy	-1530
不如	-1531
今晚	-1532
今朝	-1533
份工	-1534
咩呀	-1535
幫手	-1536
應承	-1537
每日	-1538
睇書	-1539
美國	-1540
話佢	-1541
語言	-1542
返學	-1543
重要	-1544
隻手	-1545
食煙	-1546
100	-1547
125	-1548
321	-1549
454	-1550
713	-1551
780	-1552
823	-1553
824	-1554
829	-1555
850	-1556
878	-1557
941	-1558
973	-1559
992	-1560
ber	-1561
een	-1562
enc	-1563
ets	-1564
use	-1565
ved	-1566
▁Be	-1567
▁Wh	-1568
▁我係	-1569
幾多錢	-1570
iano	-1571
most	-1572
▁310	-1573
▁392	-1574
▁406	-1575
▁417	-1576
▁519	-1577
▁add	-1578
▁bad	-1579
▁cle	-1580
▁我阿爸	-1581
▁4675	-1582
▁6005	-1583
▁7909	-1584
▁ever	-1585
▁pass	-1586
▁stop	-1587
▁tall	-1588
▁tick	-1589
▁你知唔知	-1590
▁57985	-1591
▁being	-1592
▁hours	-1593
▁piano	-1594
▁table	-1595
▁dinner	-1596
▁listen	-1597
▁proble	-1598
▁wonder	-1599
▁arrived	-1600
▁playing	-1601
▁station	-1602
▁finished	-1603
ss	-1604
ub	-1605
▁係	-1606
一次	-1607
個鐘	-1608
其他	-1609
咗去	-1610
單車	-1611
嚟嘅	-1612
大話	-1613
學生	-1614
我呀	-1615
我想	-1616
我都	-1617
游水	-1618
裏面	-1619
011	-1620
026	-1621
089	-1622
128	-1623
169	-1624
715	-1625
717	-1626
761	-1627
793	-1628
794	-1629
839	-1630
846	-1631
857	-1632
940	-1633
962	-1634
963	-1635
ife	-1636
not	-1637
uth	-1638
▁Sh	-1639
▁ey	-1640
▁佢係	-1641
一個人	-1642
俾我聽	-1643
喺邊呀	-1644
真係好	-1645
aste	-1646
ited	-1647
raid	-1648
▁108	-1649
▁144	-1650
▁188	-1651
▁273	-1652
▁313	-1653
▁air	-1654
▁few	-1655
▁red	-1656
▁run	-1657
▁ton	-1658
▁唔該你	-1659
▁點解你	-1660
iness	-1661
▁8770	-1662
▁aren	-1663
▁busy	-1664
▁cake	-1665
▁cons	-1666
▁easy	-1667
▁exam	-1668
▁hope	-1669
▁life	-1670
▁miss	-1671
▁most	-1672
▁near	-1673
▁news	-1674
▁song	-1675
▁wind	-1676
▁你識唔識	-1677
▁10692	-1678
▁53598	-1679
▁61065	-1680
▁count	-1681
▁month	-1682
▁seems	-1683
▁唔好意思呀	-1684
▁afraid	-1685
▁called	-1686
▁cannot	-1687
▁hungry	-1688
▁another	-1689
▁himself	-1690
▁present	-1691
▁tonight	-1692
▁happened	-1693
ne	-1694
一樣	-1695
個名	-1696
個月	-1697
去到	-1698
唔同	-1699
嚟到	-1700
多過	-1701
好快	-1702
封信	-1703
希望	-1704
決定	-1705
男仔	-1706
肚餓	-1707
肯定	-1708
蛋糕	-1709
計劃	-1710
返工	-1711
頭髮	-1712
食咗	-1713
052	-1714
054	-1715
063	-1716
104	-1717
134	-1718
150	-1719
322	-1720
718	-1721
733	-1722
747	-1723
765	-1724
791	-1725
828	-1726
860	-1727
880	-1728
891	-1729
895	-1730
948	-1731
964	-1732
966	-1733
981	-1734
any	-1735
ars	-1736
ath	-1737
got	-1738
orn	-1739
▁ch	-1740
▁el	-1741
▁你哋	-1742
▁冇人	-1743
▁呢啲	-1744
▁我要	-1745
▁邊度	-1746
呢本書	-1747
就好喇	-1748
有得買	-1749
ater	-1750
ical	-1751
ince	-1752
ital	-1753
ular	-1754
▁154	-1755
▁254	-1756
▁295	-1757
▁314	-1758
▁322	-1759
▁436	-1760
▁458	-1761
▁546	-1762
▁577	-1763
▁692	-1764
▁Now	-1765
▁big	-1766
▁bit	-1767
▁cor	-1768
▁end	-1769
▁ent	-1770
▁ret	-1771
▁six	-1772
▁你做咩	-1773
▁你點解	-1774
brary	-1775
sible	-1776
▁1192	-1777
▁2988	-1778
▁3500	-1779
▁6118	-1780
▁6318	-1781
▁Come	-1782
▁Sund	-1783
▁conc	-1784
▁done	-1785
▁idea	-1786
▁pict	-1787
▁same	-1788
▁sent	-1789
▁then	-1790
hether	-1791
▁33644	-1792
▁45443	-1793
▁53609	-1794
▁57989	-1795
▁64038	-1796
▁Which	-1797
▁Would	-1798
▁angry	-1799
▁compl	-1800
▁hands	-1801
▁happy	-1802
▁small	-1803
▁spicy	-1804
▁我可唔可以	-1805
▁almost	-1806
▁expens	-1807
▁having	-1808
▁pretty	-1809
▁rather	-1810
▁wanted	-1811
▁promised	-1812
gs	-1813
xi	-1814
ys	-1815
▁U	-1816
▁同	-1817
係一	-1818
咗落	-1819
唔住	-1820
嚟講	-1821
圖書	-1822
好大	-1823
好有	-1824
揸車	-1825
擔心	-1826
最後	-1827
有人	-1828
比賽	-1829
網球	-1830
老實	-1831
聽到	-1832
舊年	-1833
色嘅	-1834
講緊	-1835
003	-1836
033	-1837
043	-1838
048	-1839
072	-1840
127	-1841
129	-1842
144	-1843
168	-1844
181	-1845
531	-1846
533	-1847
705	-1848
711	-1849
741	-1850
783	-1851
822	-1852
833	-1853
838	-1854
855	-1855
929	-1856
934	-1857
954	-1858
961	-1859
ank	-1860
bit	-1861
erm	-1862
ied	-1863
led	-1864
nis	-1865
oup	-1866
ull	-1867
▁65	-1868
▁69	-1869
▁99	-1870
▁cr	-1871
▁kn	-1872
▁嗰個	-1873
▁我一	-1874
▁我個	-1875
▁我有	-1876
唔記得	-1877
喺呢度	-1878
圖書館	-1879
最鍾意	-1880
食早餐	-1881
ared	-1882
iver	-1883
rect	-1884
▁326	-1885
▁349	-1886
▁389	-1887
▁421	-1888
▁646	-1889
▁act	-1890
▁att	-1891
▁fav	-1892
▁hur	-1893
▁pie	-1894
▁pol	-1895
▁str	-1896
▁你係咪	-1897
▁如果我	-1898
ident	-1899
ision	-1900
▁2472	-1901
▁4534	-1902
▁John	-1903
▁expl	-1904
▁fall	-1905
▁fast	-1906
▁fuck	-1907
▁kind	-1908
▁snow	-1909
▁wall	-1910
▁我好鍾意	-1911
▁15316	-1912
▁46462	-1913
▁47786	-1914
▁52212	-1915
▁95363	-1916
▁class	-1917
▁clean	-1918
▁drive	-1919
▁least	-1920
▁might	-1921
▁secon	-1922
▁import	-1923
▁tennis	-1924
▁library	-1925
▁meeting	-1926
▁problem	-1927
▁working	-1928
vi	-1929
▁講	-1930
介意	-1931
仲係	-1932
佢嘅	-1933
公司	-1934
呢到	-1935
喺個	-1936
嗰啲	-1937
嗰度	-1938
好過	-1939
後生	-1940
快啲	-1941
有幾	-1942
病咗	-1943
行路	-1944
話我	-1945
跟住	-1946
道門	-1947
都要	-1948
隻錶	-1949
051	-1950
098	-1951
109	-1952
122	-1953
137	-1954
139	-1955
141	-1956
352	-1957
362	-1958
538	-1959
738	-1960
740	-1961
752	-1962
792	-1963
827	-1964
851	-1965
858	-1966
866	-1967
869	-1968
887	-1969
888	-1970
927	-1971
app	-1972
clo	-1973
for	-1974
ger	-1975
ike	-1976
oon	-1977
ote	-1978
▁62	-1979
▁An	-1980
▁呢度	-1981
▁因為	-1982
▁邊個	-1983
吖唔該	-1984
呢件事	-1985
對唔住	-1986
所以我	-1987
聖誕節	-1988
都唔知	-1989
ames	-1990
ball	-1991
enty	-1992
ered	-1993
more	-1994
olog	-1995
oman	-1996
▁222	-1997
▁255	-1998
▁264	-1999
▁266	-2000
▁401	-2001
▁423	-2002
▁532	-2003
▁609	-2004
▁694	-2005
▁hor	-2006
▁inc	-2007
▁num	-2008
▁sho	-2009
▁sum	-2010
▁我哋要	-2011
▁我唔想	-2012
clock	-2013
meric	-2014
▁1075	-2015
▁4464	-2016
▁6106	-2017
▁7999	-2018
▁card	-2019
▁else	-2020
▁gave	-2021
▁says	-2022
▁shop	-2023
▁sick	-2024
▁44658	-2025
▁57299	-2026
▁57949	-2027
▁95011	-2028
▁broke	-2029
▁heard	-2030
▁looks	-2031
▁movie	-2032
▁older	-2033
▁truth	-2034
▁邊度有得買	-2035
▁Americ	-2036
▁change	-2037
▁driver	-2038
▁expect	-2039
▁forgot	-2040
▁matter	-2041
▁myself	-2042
▁return	-2043
▁window	-2044
▁anymore	-2045
▁foreign	-2046
▁getting	-2047
▁shouldn	-2048
▁whether	-2049
▁speaking	-2050
▁watching	-2051
▁expensive	-2052
▁everything	-2053
住喺	-2054
冇人	-2055
去瞓	-2056
咩都	-2057
女人	-2058
好難	-2059
我個	-2060
搵到	-2061
時候	-2062
會好	-2063
有一	-2064
死咗	-2065
準備	-2066
突然	-2067
老婆	-2068
舖頭	-2069
蘋果	-2070
過咗	-2071
都幾	-2072
飛機	-2073
020	-2074
065	-2075
087	-2076
093	-2077
108	-2078
130	-2079
131	-2080
133	-2081
143	-2082
363	-2083
366	-2084
441	-2085
463	-2086
539	-2087
726	-2088
729	-2089
742	-2090
744	-2091
748	-2092
758	-2093
790	-2094
820	-2095
830	-2096
848	-2097
867	-2098
870	-2099
890	-2100
897	-2101
922	-2102
925	-2103
957	-2104
970	-2105
ach	-2106
anc	-2107
ild	-2108
joy	-2109
ove	-2110
rog	-2111
ump	-2112
▁44	-2113
▁96	-2114
▁Fr	-2115
▁Sp	-2116
▁fr	-2117
▁ob	-2118
▁ra	-2119
▁佢唔	-2120
▁啲人	-2121
▁雖然	-2122
。」「	-2123
世界上	-2124
唔介意	-2125
淨係得	-2126
avel	-2127
ings	-2128
ming	-2129
▁136	-2130
▁202	-2131
▁370	-2132
▁Int	-2133
▁Our	-2134
▁cho	-2135
▁dec	-2136
▁des	-2137
▁ele	-2138
▁mil	-2139
▁pos	-2140
▁sit	-2141
▁son	-2142
▁我見到	-2143
嘅人通常	-2144
阿爸阿媽	-2145
ouble	-2146
rence	-2147
▁1553	-2148
▁3856	-2149
▁3894	-2150
▁3970	-2151
▁4192	-2152
▁6116	-2153
▁Look	-2154
▁comm	-2155
▁cook	-2156
▁foll	-2157
▁slow	-2158
▁weat	-2159
ertain	-2160
friend	-2161
▁46463	-2162
▁57631	-2163
▁59285	-2164
▁59466	-2165
▁67431	-2166
▁70666	-2167
▁build	-2168
▁chang	-2169
▁glass	-2170
▁paper	-2171
▁smoke	-2172
▁those	-2173
▁tried	-2174
▁answer	-2175
▁number	-2176
▁police	-2177
▁travel	-2178
▁Chinese	-2179
▁married	-2180
▁someone	-2181
▁weather	-2182
▁business	-2183
▁important	-2184
!"	-2185
em	-2186
▁聽	-2187
㗎喎	-2188
依家	-2189
做到	-2190
叫咩	-2191
叫我	-2192
吖嗱	-2193
吖嘛	-2194
咗喇	-2195
咗喺	-2196
咗幾	-2197
外國	-2198
幾點	-2199
張枱	-2200
想要	-2201
成功	-2202
所有	-2203
搞到	-2204
改變	-2205
晒啲	-2206
法國	-2207
睇到	-2208
睇緊	-2209
結婚	-2210
興趣	-2211
話你	-2212
遲到	-2213
阿哥	-2214
雀仔	-2215
食飯	-2216
首歌	-2217
064	-2218
067	-2219
081	-2220
111	-2221
117	-2222
120	-2223
147	-2224
152	-2225
155	-2226
159	-2227
191	-2228
465	-2229
537	-2230
714	-2231
719	-2232
723	-2233
767	-2234
769	-2235
777	-2236
787	-2237
834	-2238
837	-2239
862	-2240
893	-2241
928	-2242
938	-2243
939	-2244
942	-2245
951	-2246
958	-2247
967	-2248
968	-2249
969	-2250
ase	-2251
aur	-2252
ead	-2253
fer	-2254
ock	-2255
ted	-2256
▁48	-2257
▁76	-2258
▁ve	-2259
▁你要	-2260
全部都	-2261
叫咩名	-2262
星期日	-2263
突然間	-2264
amer	-2265
ates	-2266
hind	-2267
itar	-2268
ness	-2269
ross	-2270
▁173	-2271
▁205	-2272
▁236	-2273
▁242	-2274
▁251	-2275
▁270	-2276
▁276	-2277
▁364	-2278
▁394	-2279
▁562	-2280
▁665	-2281
▁840	-2282
▁903	-2283
▁die	-2284
▁ice	-2285
▁lie	-2286
▁men	-2287
▁mid	-2288
▁mom	-2289
▁pen	-2290
▁rid	-2291
▁sub	-2292
▁sug	-2293
▁vis	-2294
▁war	-2295
幾多錢呀	-2296
amily	-2297
ceive	-2298
ellig	-2299
ither	-2300
▁1188	-2301
▁1401	-2302
▁3824	-2303
▁4465	-2304
▁5761	-2305
▁5928	-2306
▁7987	-2307
▁8891	-2308
▁Give	-2309
▁able	-2310
▁both	-2311
▁each	-2312
▁gone	-2313
▁heal	-2314
▁hole	-2315
▁less	-2316
▁mach	-2317
▁park	-2318
▁stre	-2319
gether	-2320
▁10851	-2321
▁57958	-2322
▁59210	-2323
▁64806	-2324
▁Thank	-2325
▁arrog	-2326
▁close	-2327
▁eight	-2328
▁enjoy	-2329
▁knows	-2330
▁plane	-2331
▁words	-2332
▁wrote	-2333
▁behind	-2334
▁borrow	-2335
▁family	-2336
▁follow	-2337
▁ticket	-2338
▁talking	-2339
▁usually	-2340
▁waiting	-2341
▁Intellig	-2342
▁students	-2343
▁together	-2344
ia	-2345
iv	-2346
▁人	-2347
▁咁	-2348
一啲	-2349
一陣	-2350
仲有	-2351
你嘅	-2352
個個	-2353
做緊	-2354
出去	-2355
分別	-2356
即刻	-2357
叫做	-2358
咁做	-2359
咁好	-2360
唔起	-2361
問吓	-2362
套戲	-2363
對我	-2364
就得	-2365
得濟	-2366
我嘅	-2367
掛住	-2368
撞到	-2369
方法	-2370
最近	-2371
有無	-2372
有錢	-2373
望落	-2374
清楚	-2375
準時	-2376
結他	-2377
而係	-2378
落個	-2379
講咩	-2380
讀書	-2381
返到	-2382
過你	-2383
電腦	-2384
001	-2385
022	-2386
025	-2387
061	-2388
069	-2389
080	-2390
123	-2391
124	-2392
163	-2393
167	-2394
242	-2395
248	-2396
256	-2397
506	-2398
532	-2399
721	-2400
722	-2401
725	-2402
732	-2403
735	-2404
757	-2405
868	-2406
889	-2407
923	-2408
956	-2409
ash	-2410
ege	-2411
ile	-2412
ogn	-2413
ont	-2414
ves	-2415
▁17	-2416
▁27	-2417
▁Al	-2418
▁Br	-2419
▁佢個	-2420
▁唔知	-2421
▁啲叻	-2422
▁我會	-2423
▁有人	-2424
▁有冇	-2425
▁聽講	-2426
係唔係	-2427
好似好	-2428
好靚嘅	-2429
得唔得	-2430
老實講	-2431
見過佢	-2432
都唔會	-2433
9132	-2434
ains	-2435
ason	-2436
ator	-2437
ient	-2438
ions	-2439
olen	-2440
side	-2441
unch	-2442
▁156	-2443
▁388	-2444
▁434	-2445
▁506	-2446
▁520	-2447
▁531	-2448
▁585	-2449
▁684	-2450
▁Get	-2451
▁God	-2452
▁Not	-2453
▁bag	-2454
▁bet	-2455
▁far	-2456
▁gen	-2457
▁ill	-2458
▁kid	-2459
▁lau	-2460
▁sea	-2461
▁ter	-2462
▁tri	-2463
▁佢應承	-2464
下個禮拜	-2465
鍾唔鍾意	-2466
amera	-2467
phone	-2468
where	-2469
▁1324	-2470
▁1570	-2471
▁4132	-2472
▁4185	-2473
▁4322	-2474
▁4676	-2475
▁5798	-2476
▁6329	-2477
▁7509	-2478
▁Take	-2479
▁dark	-2480
▁disc	-2481
▁flow	-2482
▁four	-2483
▁high	-2484
▁inst	-2485
▁nice	-2486
▁rich	-2487
▁tree	-2488
▁wife	-2489
▁writ	-2490
▁我唔記得	-2491
aurant	-2492
▁45442	-2493
▁46759	-2494
▁53754	-2495
▁57349	-2496
▁59132	-2497
▁61071	-2498
▁alone	-2499
▁began	-2500
▁bring	-2501
▁clear	-2502
▁favor	-2503
▁lived	-2504
▁lives	-2505
▁lunch	-2506
▁ready	-2507
▁seven	-2508
▁sound	-2509
▁spend	-2510
▁times	-2511
▁which	-2512
▁woman	-2513
▁Sunday	-2514
▁asleep	-2515
▁camera	-2516
▁caught	-2517
▁crying	-2518
▁guitar	-2519
▁killed	-2520
▁recogn	-2521
▁stolen	-2522
▁summer	-2523
▁啲叻嘅人通常	-2524
▁6095089	-2525
▁address	-2526
▁certain	-2527
▁correct	-2528
▁country	-2529
▁leaving	-2530
▁machine	-2531
▁promise	-2532
▁receive	-2533
▁younger	-2534
▁arrogant	-2535
▁swimming	-2536
▁restaurant	-2537
▁Intelligent	-2538
by	-2539
dd	-2540
eb	-2541
ky	-2542
na	-2543
so	-2544
uc	-2545
▁'	-2546
▁條	-2547
▁湯	-2548
▁無	-2549
▁隻	-2550
▁食	-2551
一日	-2552
中國	-2553
人工	-2554
佢個	-2555
俾啲	-2556
做嘅	-2557
動物	-2558
叫佢	-2559
咗兩	-2560
咩事	-2561
唔見	-2562
喊咗	-2563
噉嘅	-2564
嚟緊	-2565
國家	-2566
地址	-2567
多次	-2568
大家	-2569
就要	-2570
我冇	-2571
收到	-2572
日日	-2573
正嘅	-2574
班牙	-2575
發現	-2576
相機	-2577
第一	-2578
第二	-2579
細個	-2580
老公	-2581
至少	-2582
記住	-2583
認得	-2584
都有	-2585
都無	-2586
銀包	-2587
除咗	-2588
隔籬	-2589
雪糕	-2590
餐廳	-2591
點樣	-2592
030	-2593
038	-2594
058	-2595
090	-2596
106	-2597
140	-2598
148	-2599
149	-2600
151	-2601
156	-2602
165	-2603
233	-2604
249	-2605
269	-2606
320	-2607
328	-2608
359	-2609
360	-2610
365	-2611
445	-2612
449	-2613
467	-2614
469	-2615
536	-2616
701	-2617
702	-2618
730	-2619
731	-2620
737	-2621
739	-2622
796	-2623
821	-2624
831	-2625
842	-2626
913	-2627
921	-2628
924	-2629
931	-2630
946	-2631
947	-2632
950	-2633
952	-2634
955	-2635
960	-2636
990	-2637
act	-2638
amp	-2639
ane	-2640
cle	-2641
irt	-2642
ken	-2643
lla	-2644
med	-2645
old	-2646
ond	-2647
oud	-2648
ses	-2649
▁74	-2650
▁84	-2651
▁94	-2652
▁Af	-2653
▁By	-2654
▁On	-2655
▁Un	-2656
▁ap	-2657
▁fl	-2658
▁你啲	-2659
▁你話	-2660
▁佢有	-2661
▁呢條	-2662
▁呢部	-2663
▁呢間	-2664
▁我搵	-2665
▁湯姆	-2666
咗份工	-2667
唔開心	-2668
就走咗	-2669
成點呀	-2670
杯咖啡	-2671
架巴士	-2672
準備好	-2673
瞓晏覺	-2674
西班牙	-2675
講大話	-2676
都唔係	-2677
間房度	-2678
,000	-2679
cket	-2680
ided	-2681
imes	-2682
irty	-2683
ists	-2684
mbre	-2685
usan	-2686
ween	-2687
ying	-2688
▁174	-2689
▁268	-2690
▁294	-2691
▁316	-2692
▁552	-2693
▁564	-2694
▁604	-2695
▁685	-2696
▁764	-2697
▁dep	-2698
▁hit	-2699
▁hum	-2700
▁rad	-2701
▁sal	-2702
▁sur	-2703
▁thr	-2704
▁unt	-2705
▁win	-2706
▁我今日	-2707
▁我哋喺	-2708
▁我買咗	-2709
一個禮拜	-2710
留喺屋企	-2711
ating	-2712
oking	-2713
ously	-2714
▁1344	-2715
▁3855	-2716
▁3933	-2717
▁5269	-2718
▁6475	-2719
▁6944	-2720
▁8683	-2721
▁9555	-2722
▁Just	-2723
▁Tell	-2724
▁bath	-2725
▁bird	-2726
▁born	-2727
▁clot	-2728
▁fire	-2729
▁foot	-2730
▁gets	-2731
▁grow	-2732
▁head	-2733
▁milk	-2734
▁mine	-2735
▁pain	-2736
▁pick	-2737
▁tast	-2738
▁taxi	-2739
▁true	-2740
vision	-2741
▁22453	-2742
▁48268	-2743
▁52654	-2744
▁57341	-2745
▁57350	-2746
▁57774	-2747
▁57953	-2748
▁61035	-2749
▁78329	-2750
▁99554	-2751
▁After	-2752
▁comes	-2753
▁cream	-2754
▁dream	-2755
▁dress	-2756
▁found	-2757
▁girlf	-2758
▁habit	-2759
▁horse	-2760
▁piece	-2761
▁teach	-2762
▁terri	-2763
▁umbre	-2764
▁veget	-2765
▁waste	-2766
▁你鍾唔鍾意	-2767
▁106506	-2768
▁disapp	-2769
▁health	-2770
▁looked	-2771
▁making	-2772
▁office	-2773
▁street	-2774
▁between	-2775
▁college	-2776
▁company	-2777
▁concert	-2778
▁dollars	-2779
▁knowled	-2780
▁picture	-2781
▁umbrella	-2782
▁啲叻嘅人通常都好	-2783
▁boyfriend	-2784
▁girlfriend	-2785
▁television	-2786
▁咪	-2787
▁嘅	-2788
▁等	-2789
▁請	-2790
㗎咋	-2791
三個	-2792
今年	-2793
你會	-2794
係佢	-2795
係咁	-2796
俾個	-2797
俾錢	-2798
做咗	-2799
偷咗	-2800
先好	-2801
先生	-2802
冇乜	-2803
出咗	-2804
到咗	-2805
努力	-2806
十年	-2807
去睇	-2808
咗條	-2809
唔夠	-2810
嘢呀	-2811
嚟啦	-2812
報紙	-2813
夏天	-2814
夜晚	-2815
安全	-2816
將個	-2817
對佢	-2818
幫你	-2819
幾耐	-2820
得閒	-2821
心情	-2822
想知	-2823
我吖	-2824
我啦	-2825
我會	-2826
我諗	-2827
打爛	-2828
晏晝	-2829
有咩	-2830
望住	-2831
根本	-2832
的士	-2833
相信	-2834
知我	-2835
空氣	-2836
考試	-2837
花園	-2838
英國	-2839
落嚟	-2840
試吓	-2841
警察	-2842
過我	-2843
錯咗	-2844
鐘意	-2845
麻煩	-2846
008	-2847
023	-2848
034	-2849
066	-2850
074	-2851
084	-2852
091	-2853
101	-2854
114	-2855
118	-2856
121	-2857
161	-2858
162	-2859
164	-2860
180	-2861
187	-2862
222	-2863
230	-2864
234	-2865
356	-2866
358	-2867
364	-2868
461	-2869
462	-2870
534	-2871
551	-2872
703	-2873
772	-2874
847	-2875
998	-2876
ail	-2877
bab	-2878
cce	-2879
ely	-2880
iew	-2881
lic	-2882
ony	-2883
ors	-2884
ual	-2885
uff	-2886
▁Mr	-2887
▁OK	-2888
▁eg	-2889
▁im	-2890
▁佢想	-2891
▁呢支	-2892
▁多謝	-2893
▁小心	-2894
▁我睇	-2895
▁聽日	-2896
但係佢	-2897
係咪你	-2898
去邊度	-2899
同佢講	-2900
喺邊到	-2901
女朋友	-2902
小朋友	-2903
會發生	-2904
有幾多	-2905
架單車	-2906
男朋友	-2907
聽唔到	-2908
0194	-2909
7179	-2910
ages	-2911
cial	-2912
cuse	-2913
ized	-2914
lack	-2915
oint	-2916
sity	-2917
▁112	-2918
▁225	-2919
▁248	-2920
▁265	-2921
▁274	-2922
▁282	-2923
▁285	-2924
▁291	-2925
▁293	-2926
▁554	-2927
▁605	-2928
▁Eur	-2929
▁For	-2930
▁Her	-2931
▁Mon	-2932
▁abs	-2933
▁bur	-2934
▁col	-2935
▁cup	-2936
▁dra	-2937
▁emp	-2938
▁equ	-2939
▁fat	-2940
▁ign	-2941
▁ind	-2942
▁key	-2943
▁mag	-2944
▁pur	-2945
▁rel	-2946
▁set	-2947
▁你唔好	-2948
▁你幾時	-2949
▁你最好	-2950
▁你鍾意	-2951
▁呢本書	-2952
▁我尋日	-2953
▁我尋晚	-2954
▁我阿媽	-2955
▁老實講	-2956
介唔介意	-2957
好快就會	-2958
生日禮物	-2959
anger	-2960
anton	-2961
bably	-2962
itten	-2963
ndred	-2964
orant	-2965
redit	-2966
▁1393	-2967
▁2245	-2968
▁3364	-2969
▁3868	-2970
▁4006	-2971
▁4016	-2972
▁4025	-2973
▁4035	-2974
▁4588	-2975
▁6127	-2976
▁6162	-2977
▁6477	-2978
▁7988	-2979
▁9535	-2980
▁With	-2981
▁easi	-2982
▁eyes	-2983
▁fail	-2984
▁half	-2985
▁hold	-2986
▁moon	-2987
▁past	-2988
▁resp	-2989
▁ride	-2990
▁seri	-2991
▁shut	-2992
▁sign	-2993
▁simp	-2994
▁supp	-2995
▁佢成日都	-2996
▁13992	-2997
▁33645	-2998
▁52645	-2999
▁59433	-3000
▁64785	-3001
▁64791	-3002
▁88751	-3003
▁95012	-3004
▁Never	-3005
▁begin	-3006
▁black	-3007
▁gener	-3008
▁heart	-3009
▁novel	-3010
▁shoes	-3011
▁spent	-3012
▁visit	-3013
▁white	-3014
▁worry	-3015
▁yours	-3016
▁119216	-3017
▁Canton	-3018
▁Europe	-3019
▁Monday	-3020
▁credit	-3021
▁danger	-3022
▁reason	-3023
▁second	-3024
▁taking	-3025
▁trying	-3026
▁hundred	-3027
▁mistake	-3028
▁accident	-3029
▁favorite	-3030
▁probably	-3031
▁thinking	-3032
▁Cantonese	-3033
▁Yesterday	-3034
▁listening	-3035
▁difference	-3036
▁interested	-3037
!」	-3038
?!	-3039
bo	-3040
dy	-3041
fa	-3042
gr	-3043
io	-3044
zy	-3045
▁喂	-3046
▁睇	-3047
▁話	-3048
一間	-3049
三點	-3050
五十	-3051
人哋	-3052
介紹	-3053
係咩	-3054
係點	-3055
做得	-3056
六點	-3057
冇晒	-3058
出世	-3059
出發	-3060
到我	-3061
十二	-3062
危險	-3063
去呀	-3064
句子	-3065
同阿	-3066
呢啲	-3067
呢種	-3068
喇喎	-3069
喺呢	-3070
喺啲	-3071
嘗試	-3072
嘢食	-3073
嚟呀	-3074
士頓	-3075
外語	-3076
太多	-3077
好忙	-3078
學識	-3079
完全	-3080
實係	-3081
寫咗	-3082
小說	-3083
就嚟	-3084
廣東	-3085
彈琴	-3086
得咁	-3087
成個	-3088
成晚	-3089
把遮	-3090
散步	-3091
旅行	-3092
時會	-3093
朝頭	-3094
消息	-3095
生活	-3096
眼瞓	-3097
社會	-3098
答案	-3099
紅色	-3100
細佬	-3101
舒服	-3102
著咗	-3103
蕩失	-3104
號碼	-3105
諗過	-3106
講到	-3107
講咗	-3108
還返	-3109
電影	-3110
頂帽	-3111
頭先	-3112
點做	-3113
007	-3114
024	-3115
041	-3116
049	-3117
050	-3118
062	-3119
138	-3120
197	-3121
261	-3122
263	-3123
335	-3124
339	-3125
343	-3126
368	-3127
453	-3128
457	-3129
466	-3130
535	-3131
706	-3132
736	-3133
755	-3134
812	-3135
863	-3136
910	-3137
919	-3138
987	-3139
991	-3140
ato	-3141
eak	-3142
erc	-3143
ern	-3144
eth	-3145
ety	-3146
ney	-3147
ott	-3148
sed	-3149
ton	-3150
ush	-3151
▁80	-3152
▁At	-3153
▁Ex	-3154
▁ce	-3155
▁你冇	-3156
▁佢一	-3157
▁佢冇	-3158
▁係咪	-3159
▁呢到	-3160
▁呢隻	-3161
▁唔係	-3162
▁好多	-3163
▁我仲	-3164
▁日本	-3165
一定會	-3166
係咩呀	-3167
俾我呀	-3168
個個都	-3169
其他人	-3170
同你講	-3171
咗一個	-3172
唔應該	-3173
廣東話	-3174
我真係	-3175
打網球	-3176
朝頭早	-3177
波士頓	-3178
睇唔到	-3179
穿咗個	-3180
自己嘅	-3181
見到佢	-3182
講英文	-3183
邊個呀	-3184
部相機	-3185
都會去	-3186
....	-3187
John	-3188
aken	-3189
band	-3190
cept	-3191
dden	-3192
ding	-3193
ffic	-3194
form	-3195
hose	-3196
ider	-3197
idge	-3198
ison	-3199
lept	-3200
osed	-3201
outh	-3202
ping	-3203
road	-3204
room	-3205
▁100	-3206
▁104	-3207
▁175	-3208
▁193	-3209
▁196	-3210
▁211	-3211
▁235	-3212
▁261	-3213
▁271	-3214
▁281	-3215
▁289	-3216
▁302	-3217
▁305	-3218
▁368	-3219
▁372	-3220
▁391	-3221
▁419	-3222
▁459	-3223
▁471	-3224
▁534	-3225
▁539	-3226
▁606	-3227
▁642	-3228
▁645	-3229
▁703	-3230
▁949	-3231
▁Yes	-3232
▁adv	-3233
▁box	-3234
▁cap	-3235
▁eye	-3236
▁fil	-3237
▁flo	-3238
▁fut	-3239
▁idi	-3240
▁ins	-3241
▁ran	-3242
▁ref	-3243
▁sun	-3244
▁sup	-3245
▁tow	-3246
▁佢話佢	-3247
▁我啱啱	-3248
▁我已經	-3249
▁我老豆	-3250
對唔住呀	-3251
聖誕禮物	-3252
返到屋企	-3253
電話號碼	-3254
ained	-3255
arden	-3256
cause	-3257
cceed	-3258
oston	-3259
ustom	-3260
▁1531	-3261
▁2276	-3262
▁3499	-3263
▁3853	-3264
▁3876	-3265
▁4004	-3266
▁4029	-3267
▁4177	-3268
▁4219	-3269
▁4229	-3270
▁4335	-3271
▁4694	-3272
▁5266	-3273
▁5626	-3274
▁5733	-3275
▁8516	-3276
▁8729	-3277
▁also	-3278
▁beer	-3279
▁bike	-3280
▁cost	-3281
▁dict	-3282
▁died	-3283
▁dist	-3284
▁face	-3285
▁game	-3286
▁goes	-3287
▁kids	-3288
▁luck	-3289
▁meal	-3290
▁meat	-3291
▁move	-3292
▁quit	-3293
▁ring	-3294
▁road	-3295
▁safe	-3296
▁seat	-3297
▁shit	-3298
▁soup	-3299
▁suit	-3300
▁team	-3301
▁wake	-3302
▁wear	-3303
係邊個嚟㗎	-3304
打電話俾我	-3305
though	-3306
▁10975	-3307
▁13213	-3308
▁15323	-3309
▁16679	-3310
▁57613	-3311
▁57746	-3312
▁61085	-3313
▁64779	-3314
▁69618	-3315
▁70454	-3316
▁79878	-3317
▁95362	-3318
▁95413	-3319
▁Since	-3320
▁agree	-3321
▁chair	-3322
▁earli	-3323
▁girls	-3324
▁human	-3325
▁impos	-3326
▁known	-3327
▁later	-3328
▁manag	-3329
▁point	-3330
▁pract	-3331
▁quite	-3332
▁radio	-3333
▁store	-3334
▁story	-3335
▁weeks	-3336
▁107589	-3337
▁647425	-3338
▁Boston	-3339
▁abroad	-3340
▁apolog	-3341
▁dishes	-3342
▁eating	-3343
▁garden	-3344
▁longer	-3345
▁minute	-3346
▁moment	-3347
▁others	-3348
▁prefer	-3349
▁result	-3350
▁saying	-3351
▁sudden	-3352
▁taller	-3353
▁twenty	-3354
▁weight	-3355
▁wouldn	-3356
▁against	-3357
▁clothes	-3358
▁complet	-3359
▁flowers	-3360
▁forever	-3361
▁learned	-3362
▁singing	-3363
▁started	-3364
▁student	-3365
▁succeed	-3366
▁through	-3367
▁trouble	-3368
▁walking	-3369
▁written	-3370
▁consider	-3371
▁everyone	-3372
▁ignorant	-3373
▁learning	-3374
▁studying	-3375
▁different	-3376
▁recognize	-3377
▁telephone	-3378
▁impossible	-3379
:「	-3380
It	-3381
No	-3382
co	-3383
du	-3384
lc	-3385
ug	-3386
vo	-3387
vy	-3388
⋯⋯	-3389
▁上	-3390
▁做	-3391
▁收	-3392
▁每	-3393
▁班	-3394
三次	-3395
之內	-3396
二十	-3397
仆街	-3398
今個	-3399
你哋	-3400
係噉	-3401
信用	-3402
先至	-3403
入去	-3404
公仔	-3405
出聲	-3406
原來	-3407
去過	-3408
又好	-3409
司機	-3410
同個	-3411
呢條	-3412
呢樣	-3413
咁大	-3414
唔信	-3415
唔明	-3416
喺我	-3417
噉樣	-3418
嚟探	-3419
嚟搵	-3420
埲牆	-3421
報告	-3422
壞咗	-3423
大嘅	-3424
太陽	-3425
好呀	-3426
好差	-3427
好易	-3428
好耐	-3429
好高	-3430
字典	-3431
將啲	-3432
就到	-3433
巴黎	-3434
廁所	-3435
張紙	-3436
得過	-3437
想像	-3438
撞咗	-3439
收音	-3440
放棄	-3441
早啲	-3442
更加	-3443
機會	-3444
歷史	-3445
溫書	-3446
照顧	-3447
牛奶	-3448
特別	-3449
男人	-3450
眼鏡	-3451
瞓緊	-3452
等緊	-3453
簡單	-3454
細妹	-3455
細聲	-3456
習慣	-3457
自由	-3458
要做	-3459
解釋	-3460
責任	-3461
遲啲	-3462
部手	-3463
關於	-3464
食完	-3465
馬路	-3466
麵包	-3467
009	-3468
028	-3469
029	-3470
037	-3471
056	-3472
068	-3473
097	-3474
102	-3475
142	-3476
154	-3477
240	-3478
247	-3479
287	-3480
323	-3481
326	-3482
330	-3483
334	-3484
350	-3485
442	-3486
530	-3487
650	-3488
659	-3489
708	-3490
724	-3491
727	-3492
750	-3493
776	-3494
797	-3495
876	-3496
904	-3497
953	-3498
You	-3499
ada	-3500
air	-3501
als	-3502
cri	-3503
cum	-3504
dle	-3505
eed	-3506
eng	-3507
kyo	-3508
oin	-3509
ons	-3510
ude	-3511
uss	-3512
▁37	-3513
▁49	-3514
▁ed	-3515
▁ph	-3516
▁sk	-3517
▁不如	-3518
▁你仲	-3519
▁你係	-3520
▁你點	-3521
▁俾我	-3522
▁其實	-3523
▁唔使	-3524
▁好似	-3525
▁尋日	-3526
▁希望	-3527
▁張枱	-3528
▁我叫	-3529
▁我對	-3530
▁我未	-3531
▁真係	-3532
▁睇吓	-3533
但係就	-3534
但係都	-3535
係我嘅	-3536
俾你聽	-3537
俾我哋	-3538
個計劃	-3539
十分鐘	-3540
句句子	-3541
同埋一	-3542
同我哋	-3543
呢個字	-3544
呢首歌	-3545
咗起身	-3546
唔想去	-3547
嗰本書	-3548
嚟緊喇	-3549
因為我	-3550
學外語	-3551
少少呀	-3552
收音機	-3553
瞌一陣	-3554
講得好	-3555
踩單車	-3556
間學校	-3557
間舖頭	-3558
音樂會	-3559
What	-3560
adaz	-3561
ants	-3562
aris	-3563
cked	-3564
eath	-3565
ense	-3566
gest	-3567
hood	-3568
icks	-3569
land	-3570
llut	-3571
noon	-3572
ower	-3573
upid	-3574
ures	-3575
▁134	-3576
▁140	-3577
▁179	-3578
▁187	-3579
▁194	-3580
▁232	-3581
▁258	-3582
▁283	-3583
▁318	-3584
▁319	-3585
▁332	-3586
▁596	-3587
▁619	-3588
▁622	-3589
▁662	-3590
▁800	-3591
▁art	-3592
▁ass	-3593
▁ate	-3594
▁bar	-3595
▁cra	-3596
▁hea	-3597
▁hol	-3598
▁hus	-3599
▁its	-3600
▁nor	-3601
▁pop	-3602
▁reg	-3603
▁sad	-3604
▁sat	-3605
▁tre	-3606
▁你而家	-3607
▁你舊年	-3608
▁佢鍾意	-3609
▁我今朝	-3610
▁我仲未	-3611
▁我唔會	-3612
▁我淨係	-3613
俾人偷咗	-3614
唔喺屋企	-3615
喺度睇緊	-3616
細個嗰陣	-3617
覺得自己	-3618
Thank	-3619
ative	-3620
board	-3621
dered	-3622
ences	-3623
ility	-3624
lcome	-3625
▁1241	-3626
▁1272	-3627
▁1572	-3628
▁1691	-3629
▁1780	-3630
▁3475	-3631
▁3825	-3632
▁3859	-3633
▁3883	-3634
▁3932	-3635
▁4028	-3636
▁4036	-3637
▁4220	-3638
▁4576	-3639
▁4606	-3640
▁4615	-3641
▁5425	-3642
▁5546	-3643
▁5792	-3644
▁6099	-3645
▁8875	-3646
▁Both	-3647
▁Even	-3648
▁Fuck	-3649
▁Shut	-3650
▁body	-3651
▁burn	-3652
▁cats	-3653
▁cool	-3654
▁cour	-3655
▁cute	-3656
▁deal	-3657
▁drop	-3658
▁earn	-3659
▁fact	-3660
▁fine	-3661
▁guys	-3662
▁hurt	-3663
▁knew	-3664
▁poor	-3665
▁side	-3666
▁sock	-3667
▁sold	-3668
▁view	-3669
▁wasn	-3670
▁你唔應該	-3671
▁佢應承咗	-3672
▁我想問吓	-3673
adazan	-3674
aining	-3675
atient	-3676
ention	-3677
ionary	-3678
▁16913	-3679
▁18996	-3680
▁24792	-3681
▁34996	-3682
▁44648	-3683
▁45340	-3684
▁50194	-3685
▁53599	-3686
▁53600	-3687
▁53870	-3688
▁57601	-3689
▁57984	-3690
▁59536	-3691
▁61034	-3692
▁61072	-3693
▁61270	-3694
▁64784	-3695
▁64792	-3696
▁64849	-3697
▁69610	-3698
▁70320	-3699
▁79883	-3700
▁99555	-3701
▁China	-3702
▁Paris	-3703
▁Sorry	-3704
▁Susan	-3705
▁These	-3706
▁Three	-3707
▁Today	-3708
▁Tokyo	-3709
▁allow	-3710
▁beach	-3711
▁catch	-3712
▁exist	-3713
▁floor	-3714
▁front	-3715
▁green	-3716
▁idiot	-3717
▁impro	-3718
▁makes	-3719
▁meant	-3720
▁mouth	-3721
▁names	-3722
▁noise	-3723
▁shall	-3724
▁short	-3725
▁stuff	-3726
▁teeth	-3727
▁until	-3728
▁works	-3729
▁119215	-3730
▁612012	-3731
▁Excuse	-3732
▁Thanks	-3733
▁appear	-3734
▁apples	-3735
▁comput	-3736
▁daught	-3737
▁depend	-3738
▁entire	-3739
▁finish	-3740
▁future	-3741
▁harder	-3742
▁living	-3743
▁partic	-3744
▁passed	-3745
▁pollut	-3746
▁report	-3747
▁scared	-3748
▁simple	-3749
▁stupid	-3750
▁turned	-3751
▁univer	-3752
▁wallet	-3753
▁within	-3754
▁Kadazan	-3755
▁changed	-3756
▁earlier	-3757
▁evening	-3758
▁feeling	-3759
▁husband	-3760
▁largest	-3761
▁raining	-3762
▁telling	-3763
▁American	-3764
▁Tomorrow	-3765
▁building	-3766
▁sentence	-3767
▁teachers	-3768
▁Everybody	-3769
▁afternoon	-3770
▁dangerous	-3771
▁knowledge	-3772
▁questions	-3773
▁Everything	-3774
▁dictionary	-3775
▁interesting	-3776
gu	-3777
ok	-3778
pr	-3779
ts	-3780
ze	-3781
▁俾	-3782
▁嘩	-3783
▁大	-3784
▁屌	-3785
▁邊	-3786
▁間	-3787
㗎啦	-3788
一年	-3789
三日	-3790
中嘅	-3791
中文	-3792
之間	-3793
任何	-3794
住咗	-3795
你咁	-3796
佢啦	-3797
佢啲	-3798
佢好	-3799
佢會	-3800
係你	-3801
係個	-3802
係唔	-3803
保證	-3804
做完	-3805
八點	-3806
冇錢	-3807
冬天	-3808
出事	-3809
出名	-3810
出現	-3811
出盡	-3812
勤力	-3813
卡達	-3814
古力	-3815
呢張	-3816
呢排	-3817
咗婚	-3818
咗張	-3819
哥爾	-3820
唔去	-3821
唔落	-3822
唯一	-3823
問佢	-3824
問我	-3825
啤酒	-3826
啦啦	-3827
啱嘅	-3828
嗰部	-3829
嘅事	-3830
嘅咩	-3831
大利	-3832
失望	-3833
好啲	-3834
好早	-3835
好返	-3836
家姐	-3837
幾日	-3838
建築	-3839
影響	-3840
成世	-3841
我㗎	-3842
我係	-3843
我唔	-3844
我有	-3845
或者	-3846
所謂	-3847
打咗	-3848
搵佢	-3849
晚飯	-3850
有個	-3851
有六	-3852
未必	-3853
東京	-3854
棵樹	-3855
歐洲	-3856
歡迎	-3857
死人	-3858
每朝	-3859
污染	-3860
滿晒	-3861
無知	-3862
犀利	-3863
琴晚	-3864
發明	-3865
真相	-3866
瞓覺	-3867
知你	-3868
粒鐘	-3869
絕對	-3870
自殺	-3871
落去	-3872
見面	-3873
試過	-3874
話會	-3875
諗緊	-3876
走喇	-3877
身體	-3878
返咗	-3879
進步	-3880
運動	-3881
鋼琴	-3882
鎖匙	-3883
閒呀	-3884
離開	-3885
食辣	-3886
002	-3887
004	-3888
017	-3889
031	-3890
057	-3891
059	-3892
060	-3893
158	-3894
229	-3895
244	-3896
252	-3897
255	-3898
324	-3899
325	-3900
338	-3901
349	-3902
354	-3903
427	-3904
444	-3905
446	-3906
450	-3907
451	-3908
455	-3909
459	-3910
460	-3911
464	-3912
552	-3913
569	-3914
647	-3915
655	-3916
656	-3917
668	-3918
709	-3919
720	-3920
728	-3921
788	-3922
789	-3923
907	-3924
930	-3925
959	-3926
997	-3927
999	-3928
apt	-3929
aul	-3930
bed	-3931
col	-3932
eep	-3933
ime	-3934
jor	-3935
man	-3936
osp	-3937
oun	-3938
ple	-3939
rap	-3940
unk	-3941
uri	-3942
▁90	-3943
▁Go	-3944
▁Oh	-3945
▁So	-3946
▁Sw	-3947
▁ac	-3948
▁da	-3949
▁sn	-3950
▁你個	-3951
▁佢將	-3952
▁我俾	-3953
▁我用	-3954
▁我識	-3955
▁我都	-3956
▁最近	-3957
▁有個	-3958
一齊去	-3959
之後就	-3960
你唔好	-3961
佢哋嘅	-3962
剪頭髮	-3963
卡達山	-3964
危險㗎	-3965
去瞓覺	-3966
同我講	-3967
咁多人	-3968
咗個窗	-3969
啲咩㗎	-3970
啲嘢食	-3971
嘅問題	-3972
嘅地方	-3973
嘅女仔	-3974
因為佢	-3975
埋啲咁	-3976
壞習慣	-3977
好唔好	-3978
就係我	-3979
就唔會	-3980
就開始	-3981
度撞到	-3982
意大利	-3983
我屋企	-3984
我淨係	-3985
所以就	-3986
撞咗埋	-3987
朱古力	-3988
架火車	-3989
條問題	-3990
睇吓你	-3991
睇電視	-3992
蕩失路	-3993
諗住去	-3994
部電視	-3995
錢俾你	-3996
麻煩你	-3997
1879	-3998
andf	-3999
eter	-4000
ighb	-4001
ilet	-4002
less	-4003
ling	-4004
orts	-4005
ring	-4006
tory	-4007
ully	-4008
urry	-4009
▁129	-4010
▁148	-4011
▁171	-4012
▁190	-4013
▁203	-4014
▁204	-4015
▁226	-4016
▁238	-4017
▁243	-4018
▁259	-4019
▁262	-4020
▁275	-4021
▁278	-4022
▁297	-4023
▁304	-4024
▁321	-4025
▁365	-4026
▁376	-4027
▁431	-4028
▁444	-4029
▁475	-4030
▁510	-4031
▁514	-4032
▁556	-4033
▁574	-4034
▁583	-4035
▁588	-4036
▁589	-4037
▁595	-4038
▁636	-4039
▁678	-4040
▁679	-4041
▁683	-4042
▁686	-4043
▁712	-4044
▁714	-4045
▁715	-4046
▁772	-4047
▁793	-4048
▁Day	-4049
▁age	-4050
▁bat	-4051
▁bor	-4052
▁dam	-4053
▁dig	-4054
▁due	-4055
▁eld	-4056
▁exc	-4057
▁fam	-4058
▁fif	-4059
▁fly	-4060
▁fun	-4061
▁guy	-4062
▁vac	-4063
▁yen	-4064
▁你今朝	-4065
▁你可以	-4066
▁你唔使	-4067
▁你諗住	-4068
▁佢唔識	-4069
▁佢已經	-4070
▁個細路	-4071
▁冇人會	-4072
▁我以為	-4073
▁我而家	-4074
▁我聽日	-4075
▁我諗住	-4076
▁有冇人	-4077
▁有啲人	-4078
叫我起身	-4079
如果唔係	-4080
就得㗎喇	-4081
穿咗個窿	-4082
辭咗份工	-4083
agine	-4084
anish	-4085
asted	-4086
aying	-4087
ebook	-4088
ended	-4089
illed	-4090
onest	-4091
ouple	-4092
uring	-4093
▁1304	-4094
▁1530	-4095
▁1766	-4096
▁1774	-4097
▁1895	-4098
▁1902	-4099
▁1970	-4100
▁2395	-4101
▁2455	-4102
▁2595	-4103
▁2884	-4104
▁2895	-4105
▁3465	-4106
▁3895	-4107
▁4003	-4108
▁4034	-4109
▁4329	-4110
▁4663	-4111
▁5221	-4112
▁5238	-4113
▁5285	-4114
▁5625	-4115
▁5781	-4116
▁5875	-4117
▁5932	-4118
▁5946	-4119
▁5996	-4120
▁6175	-4121
▁6728	-4122
▁7844	-4123
▁7954	-4124
▁8408	-4125
▁8766	-4126
▁9536	-4127
▁9956	-4128
▁Brit	-4129
▁Germ	-4130
▁Here	-4131
▁Most	-4132
▁Stop	-4133
▁Tony	-4134
▁anim	-4135
▁blue	-4136
▁boil	-4137
▁bott	-4138
▁case	-4139
▁cell	-4140
▁char	-4141
▁dogs	-4142
▁ears	-4143
▁eggs	-4144
▁film	-4145
▁fool	-4146
▁glad	-4147
▁hasn	-4148
▁hate	-4149
▁hell	-4150
▁hosp	-4151
▁jump	-4152
▁mood	-4153
▁nine	-4154
▁requ	-4155
▁stom	-4156
▁temp	-4157
▁test	-4158
▁tour	-4159
▁trip	-4160
▁wine	-4161
▁你最鍾意	-4162
▁佢係一個	-4163
▁如果你想	-4164
▁我唔知佢	-4165
▁我唔覺得	-4166
▁點解你唔	-4167
你可唔可以	-4168
唔係好鍾意	-4169
得唔得閒呀	-4170
永遠都唔會	-4171
ations	-4172
colate	-4173
ularly	-4174
vented	-4175
▁10798	-4176
▁13456	-4177
▁15795	-4178
▁18994	-4179
▁20672	-4180
▁21115	-4181
▁46461	-4182
▁52698	-4183
▁55285	-4184
▁57179	-4185
▁57348	-4186
▁57602	-4187
▁57745	-4188
▁57948	-4189
▁58048	-4190
▁59286	-4191
▁59376	-4192
▁61024	-4193
▁64579	-4194
▁64812	-4195
▁65392	-4196
▁70453	-4197
▁79862	-4198
▁79961	-4199
▁95470	-4200
▁Those	-4201
▁apple	-4202
▁blind	-4203
▁bread	-4204
▁cards	-4205
▁color	-4206
▁cross	-4207
▁death	-4208
▁empty	-4209
▁equal	-4210
▁heavy	-4211
▁holid	-4212
▁hurry	-4213
▁keeps	-4214
▁laugh	-4215
▁liked	-4216
▁lying	-4217
▁magaz	-4218
▁major	-4219
▁marry	-4220
▁moved	-4221
▁newsp	-4222
▁order	-4223
▁quick	-4224
▁raise	-4225
▁river	-4226
▁since	-4227
▁smart	-4228
▁smell	-4229
▁steal	-4230
▁stuck	-4231
▁sugar	-4232
▁thank	-4233
▁trans	-4234
▁twice	-4235
▁你介唔介意	-4236
▁106458	-4237
▁109812	-4238
▁593771	-4239
▁593773	-4240
▁France	-4241
▁People	-4242
▁States	-4243
▁United	-4244
▁asking	-4245
▁became	-4246
▁become	-4247
▁boring	-4248
▁bridge	-4249
▁broken	-4250
▁button	-4251
▁chance	-4252
▁couple	-4253
▁easily	-4254
▁famous	-4255
▁honest	-4256
▁likely	-4257
▁member	-4258
▁middle	-4259
▁movies	-4260
▁neighb	-4261
▁repeat	-4262
▁respon	-4263
▁sleepy	-4264
▁slowly	-4265
▁thinks	-4266
▁though	-4267
▁toilet	-4268
▁winter	-4269
▁worked	-4270
▁America	-4271
▁capital	-4272
▁careful	-4273
▁decided	-4274
▁happens	-4275
▁history	-4276
▁instead	-4277
▁meaning	-4278
▁realize	-4279
▁seconds	-4280
▁suggest	-4281
▁welcome	-4282
▁worried	-4283
▁writing	-4284
andfather	-4285
▁Although	-4286
▁Somebody	-4287
▁computer	-4288
▁daughter	-4289
▁football	-4290
▁hospital	-4291
▁mistakes	-4292
▁notebook	-4293
▁pictures	-4294
▁terrible	-4295
▁chocolate	-4296
▁disappoint	-4297
▁complaining	-4298
,"	-4299
aw	-4300
be	-4301
ib	-4302
ma	-4303
ru	-4304
sp	-4305
ti	-4306
yd	-4307
▁$	-4308
▁-	-4309
▁z	-4310
▁五	-4311
▁入	-4312
▁兩	-4313
▁加	-4314
▁去	-4315
▁咩	-4316
▁將	-4317
▁就	-4318
▁死	-4319
▁為	-4320
▁過	-4321
▁都	-4322
一百	-4323
一邊	-4324
一隻	-4325
三年	-4326
上咗	-4327
上床	-4328
中學	-4329
之外	-4330
乜都	-4331
人好	-4332
人都	-4333
人類	-4334
仔女	-4335
估吓	-4336
住㗎	-4337
住我	-4338
你呀	-4339
你有	-4340
你講	-4341
佢咁	-4342
佢唔	-4343
佢就	-4344
係喺	-4345
係用	-4346
係真	-4347
信封	-4348
修理	-4349
值得	-4350
傢俬	-4351
傷害	-4352
傾吓	-4353
先會	-4354
免費	-4355
入咗	-4356
入嚟	-4357
公園	-4358
冠軍	-4359
到啲	-4360
千祈	-4361
半夜	-4362
同學	-4363
呢份	-4364
周圍	-4365
咁喎	-4366
咁樣	-4367
咗做	-4368
哥哥	-4369
唔出	-4370
唔喺	-4371
唔食	-4372
問你	-4373
啫係	-4374
啲書	-4375
啲水	-4376
啲錢	-4377
單止	-4378
嗰到	-4379
嗰架	-4380
嗰條	-4381
嗰樣	-4382
嗰間	-4383
嘅工	-4384
嘅書	-4385
嘅首	-4386
嚟咗	-4387
嚟唔	-4388
地鐵	-4389
堡包	-4390
場仗	-4391
塞車	-4392
夠喇	-4393
大約	-4394
夫球	-4395
好冇	-4396
好襯	-4397
容易	-4398
實會	-4399
左右	-4400
幾個	-4401
幾好	-4402
座山	-4403
後悔	-4404
得意	-4405
德文	-4406
恐怖	-4407
感覺	-4408
我去	-4409
我啲	-4410
我要	-4411
手車	-4412
搞掂	-4413
支筆	-4414
數學	-4415
文件	-4416
明白	-4417
最尾	-4418
會有	-4419
月球	-4420
有隻	-4421
未來	-4422
梗係	-4423
梳化	-4424
棒球	-4425
次次	-4426
污糟	-4427
沙灘	-4428
演講	-4429
無理	-4430
特登	-4431
玫瑰	-4432
生物	-4433
用呢	-4434
用嘅	-4435
畀我	-4436
留低	-4437
直接	-4438
睇完	-4439
筆錢	-4440
算係	-4441
結果	-4442
經理	-4443
綠色	-4444
練琴	-4445
羅馬	-4446
老人	-4447
老母	-4448
考慮	-4449
聽朝	-4450
要用	-4451
認真	-4452
諗法	-4453
講人	-4454
講嘅	-4455
講得	-4456
講過	-4457
識得	-4458
買咩	-4459
贏咗	-4460
超級	-4461
返緊	-4462
都未	-4463
酒店	-4464
鉛筆	-4465
銀行	-4466
閂咗	-4467
雜誌	-4468
靚嘅	-4469
靚女	-4470
飲酒	-4471
駕駛	-4472
高過	-4473
髮型	-4474
...	-4475
040	-4476
113	-4477
119	-4478
160	-4479
198	-4480
220	-4481
225	-4482
226	-4483
237	-4484
238	-4485
241	-4486
243	-4487
253	-4488
257	-4489
260	-4490
277	-4491
281	-4492
300	-4493
327	-4494
361	-4495
439	-4496
448	-4497
488	-4498
540	-4499
543	-4500
639	-4501
658	-4502
680	-4503
682	-4504
707	-4505
902	-4506
911	-4507
937	-4508
996	-4509
Let	-4510
adu	-4511
ces	-4512
che	-4513
com	-4514
cut	-4515
elt	-4516
esc	-4517
hip	-4518
hol	-4519
ial	-4520
ics	-4521
ird	-4522
itc	-4523
loy	-4524
oto	-4525
ret	-4526
rew	-4527
sib	-4528
wor	-4529
▁57	-4530
▁83	-4531
▁89	-4532
▁93	-4533
▁Ob	-4534
▁Te	-4535
▁Tw	-4536
▁sy	-4537
▁你做	-4538
▁你好	-4539
▁佢俾	-4540
▁佢用	-4541
▁佢連	-4542
▁個個	-4543
▁個天	-4544
▁呢樣	-4545
▁唔怪	-4546
▁嗰度	-4547
▁嗰座	-4548
▁套戲	-4549
▁我去	-4550
▁我讀	-4551
▁我食	-4552
▁所有	-4553
▁架車	-4554
▁等我	-4555
▁舊年	-4556
▁過咗	-4557
▁間房	-4558
五個人	-4559
五分鐘	-4560
件蛋糕	-4561
你應該	-4562
信用卡	-4563
俾人撻	-4564
俾你啦	-4565
俾佢聽	-4566
做功課	-4567
兩個鐘	-4568
公司度	-4569
出名嘅	-4570
出咗去	-4571
到而家	-4572
去睇戲	-4573
只不過	-4574
同一個	-4575
咗我個	-4576
唔知點	-4577
唔認得	-4578
啲天氣	-4579
喺呢間	-4580
喺嗰度	-4581
喺學校	-4582
嗰個人	-4583
嗰架車	-4584
嗰陣時	-4585
嘥時間	-4586
嚟㗎喇	-4587
嚟呢度	-4588
地鐵站	-4589
埋一齊	-4590
大家都	-4591
好似樣	-4592
屋企人	-4593
幫唔到	-4594
得好快	-4595
我哋嘅	-4596
我哋就	-4597
打俾我	-4598
晒啲嘢	-4599
有冇人	-4600
決定咗	-4601
漢堡包	-4602
班火車	-4603
病咗喎	-4604
發生咗	-4605
第一個	-4606
結咗婚	-4607
老師話	-4608
自己做	-4609
走咗入	-4610
跌咗落	-4611
較細聲	-4612
返嚟㗎	-4613
部手提	-4614
都仲係	-4615
都仲未	-4616
都唔識	-4617
重要嘅	-4618
0884	-4619
1040	-4620
1626	-4621
1800	-4622
1832	-4623
3646	-4624
7716	-4625
9176	-4626
9356	-4627
9612	-4628
ange	-4629
cted	-4630
duce	-4631
ears	-4632
fect	-4633
ians	-4634
iest	-4635
inda	-4636
ines	-4637
ises	-4638
ixed	-4639
ject	-4640
mbur	-4641
ones	-4642
ored	-4643
ouch	-4644
reed	-4645
rely	-4646
ries	-4647
urch	-4648
vern	-4649
▁111	-4650
▁165	-4651
▁178	-4652
▁186	-4653
▁209	-4654
▁252	-4655
▁263	-4656
▁277	-4657
▁279	-4658
▁301	-4659
▁303	-4660
▁308	-4661
▁309	-4662
▁311	-4663
▁317	-4664
▁320	-4665
▁324	-4666
▁353	-4667
▁366	-4668
▁387	-4669
▁390	-4670
▁393	-4671
▁409	-4672
▁416	-4673
▁420	-4674
▁456	-4675
▁474	-4676
▁483	-4677
▁484	-4678
▁524	-4679
▁525	-4680
▁530	-4681
▁568	-4682
▁578	-4683
▁587	-4684
▁598	-4685
▁600	-4686
▁601	-4687
▁613	-4688
▁618	-4689
▁635	-4690
▁640	-4691
▁655	-4692
▁664	-4693
▁670	-4694
▁675	-4695
▁682	-4696
▁689	-4697
▁710	-4698
▁762	-4699
▁774	-4700
▁779	-4701
▁973	-4702
▁Any	-4703
▁Bob	-4704
▁Nob	-4705
▁One	-4706
▁Syd	-4707
▁avo	-4708
▁dad	-4709
▁def	-4710
▁det	-4711
▁ext	-4712
▁hid	-4713
▁inf	-4714
▁mad	-4715
▁occ	-4716
▁per	-4717
▁phy	-4718
▁pri	-4719
▁pub	-4720
▁rob	-4721
▁ser	-4722
▁sex	-4723
▁sim	-4724
▁sol	-4725
▁tra	-4726
▁你今日	-4727
▁佢唔係	-4728
▁佢好似	-4729
▁唔好咁	-4730
▁唔該俾	-4731
▁壞習慣	-4732
▁多謝你	-4733
▁如果佢	-4734
▁我今晚	-4735
▁我保證	-4736
▁我哋一	-4737
▁我家姐	-4738
▁我想要	-4739
▁我阿哥	-4740
▁我隻錶	-4741
▁最近嘅	-4742
上個禮拜	-4743
世界上最	-4744
你返屋企	-4745
哥爾夫球	-4746
唔使返學	-4747
喊咗出嚟	-4748
喺邊度呀	-4749
嗰個男仔	-4750
後生嗰陣	-4751
有好多人	-4752
有好多嘢	-4753
每個禮拜	-4754
永遠都係	-4755
瞓緊晏覺	-4756
ables	-4757
ached	-4758
actly	-4759
aking	-4760
ances	-4761
anted	-4762
arket	-4763
ction	-4764
eased	-4765
encil	-4766
ented	-4767
ently	-4768
fully	-4769
icken	-4770
ience	-4771
itive	-4772
itted	-4773
iture	-4774
iving	-4775
onoun	-4776
orean	-4777
ounds	-4778
ouses	-4779
▁1076	-4780
▁1345	-4781
▁1466	-4782
▁1472	-4783
▁1532	-4784
▁1542	-4785
▁1555	-4786
▁1579	-4787
▁1874	-4788
▁1899	-4789
▁2396	-4790
▁2453	-4791
▁2510	-4792
▁2645	-4793
▁2774	-4794
▁2810	-4795
▁2891	-4796
▁2962	-4797
▁3254	-4798
▁3915	-4799
▁4084	-4800
▁4170	-4801
▁4236	-4802
▁4249	-4803
▁4315	-4804
▁4726	-4805
▁5279	-4806
▁5332	-4807
▁5342	-4808
▁5572	-4809
▁5716	-4810
▁5720	-4811
▁5753	-4812
▁5782	-4813
▁5803	-4814
▁6194	-4815
▁6425	-4816
▁6485	-4817
▁6605	-4818
▁6611	-4819
▁6645	-4820
▁6743	-4821
▁6895	-4822
▁7009	-4823
▁7074	-4824
▁8764	-4825
▁8966	-4826
▁9541	-4827
▁9955	-4828
▁Jane	-4829
▁Only	-4830
▁Paul	-4831
▁Turn	-4832
▁Well	-4833
▁ball	-4834
▁bank	-4835
▁base	-4836
▁bicy	-4837
▁boys	-4838
▁coat	-4839
▁cond	-4840
▁date	-4841
▁dead	-4842
▁desk	-4843
▁drag	-4844
▁felt	-4845
▁full	-4846
▁furn	-4847
▁golf	-4848
▁held	-4849
▁join	-4850
▁kept	-4851
▁kitc	-4852
▁lake	-4853
▁lock	-4854
▁lose	-4855
▁loss	-4856
▁loud	-4857
▁obvi	-4858
▁post	-4859
▁prep	-4860
▁prop	-4861
▁prov	-4862
▁rate	-4863
▁rock	-4864
▁seem	-4865
▁sell	-4866
▁sofa	-4867
▁step	-4868
▁till	-4869
▁upon	-4870
▁vide	-4871
▁vill	-4872
▁warm	-4873
▁yell	-4874
▁你做咩唔	-4875
▁你聖誕節	-4876
▁啲人成日	-4877
▁如果我哋	-4878
▁如果我有	-4879
▁對唔住呀	-4880
▁張枱上面	-4881
▁我唔可以	-4882
▁我真係好	-4883
做生日禮物	-4884
返屋企嗰陣	-4885
rested	-4886
▁10843	-4887
▁11071	-4888
▁11322	-4889
▁14484	-4890
▁14523	-4891
▁17636	-4892
▁19544	-4893
▁20279	-4894
▁20574	-4895
▁36873	-4896
▁46760	-4897
▁52379	-4898
▁53552	-4899
▁53597	-4900
▁53974	-4901
▁56413	-4902
▁57510	-4903
▁57929	-4904
▁59426	-4905
▁61038	-4906
▁64778	-4907
▁64876	-4908
▁90844	-4909
▁99612	-4910
▁Linda	-4911
▁Peter	-4912
▁Somet	-4913
▁While	-4914
▁adver	-4915
▁carry	-4916
▁crazy	-4917
▁dirty	-4918
▁earth	-4919
▁elder	-4920
▁envel	-4921
▁inter	-4922
▁intro	-4923
▁loves	-4924
▁lucky	-4925
▁means	-4926
▁mount	-4927
▁party	-4928
▁plays	-4929
▁power	-4930
▁price	-4931
▁proud	-4932
▁slept	-4933
▁spell	-4934
▁spoon	-4935
▁stamp	-4936
▁subst	-4937
▁surpr	-4938
▁taken	-4939
▁takes	-4940
▁taste	-4941
▁tasty	-4942
▁touch	-4943
▁trust	-4944
▁using	-4945
▁whole	-4946
▁worse	-4947
▁worth	-4948
▁你好快就會	-4949
▁可唔可以借	-4950
▁唔好唔記得	-4951
▁我阿爸阿媽	-4952
喺度睇緊電視	-4953
etition	-4954
▁110733	-4955
▁153072	-4956
▁Father	-4957
▁German	-4958
▁Korean	-4959
▁Mother	-4960
▁Nobody	-4961
▁Sydney	-4962
▁across	-4963
▁breath	-4964
▁choice	-4965
▁course	-4966
▁custom	-4967
▁during	-4968
▁except	-4969
▁experi	-4970
▁failed	-4971
▁fallen	-4972
▁govern	-4973
▁hambur	-4974
▁hardly	-4975
▁inform	-4976
▁opened	-4977
▁pencil	-4978
▁physic	-4979
▁prison	-4980
▁singer	-4981
▁speaks	-4982
▁stayed	-4983
▁strong	-4984
▁superm	-4985
▁talked	-4986
▁thirty	-4987
▁toward	-4988
▁unable	-4989
▁waited	-4990
▁walked	-4991
sibility	-4992
▁Because	-4993
▁Spanish	-4994
▁Sundays	-4995
▁animals	-4996
▁attract	-4997
▁bicycle	-4998
▁collect	-4999
▁contest	-5000
▁discuss	-5001
▁driving	-5002
▁exactly	-5003
▁example	-5004
▁imagine	-5005
▁kitchen	-5006
▁manager	-5007
▁neither	-5008
▁ordered	-5009
▁patient	-5010
▁popular	-5011
▁pronoun	-5012
▁quickly	-5013
▁reached	-5014
▁running	-5015
▁smoking	-5016
▁strange	-5017
▁tickets	-5018
▁traffic	-5019
▁village	-5020
▁anywhere	-5021
▁arrested	-5022
▁baseball	-5023
▁changing	-5024
▁decision	-5025
▁distance	-5026
▁expected	-5027
▁practice	-5028
▁standing	-5029
▁suddenly	-5030
▁apologize	-5031
▁attention	-5032
▁everybody	-5033
▁furniture	-5034
▁newspaper	-5035
▁pollution	-5036
▁pretended	-5037
▁traveling	-5038
▁government	-5039
▁university	-5040
▁vegetables	-5041
▁competition	-5042
▁information	-5043
?」	-5044
BB	-5045
ah	-5046
de	-5047
eg	-5048
gl	-5049
ls	-5050
te	-5051
wr	-5052
yp	-5053
▁V	-5054
▁三	-5055
▁十	-5056
▁坐	-5057
▁天	-5058
▁小	-5059
▁放	-5060
▁王	-5061
▁用	-5062
▁老	-5063
▁耶	-5064
▁自	-5065
▁要	-5066
▁點	-5067
。"	-5068
」,	-5069
」。	-5070
㗎可	-5071
一份	-5072
一係	-5073
一大	-5074
一架	-5075
一點	-5076
七點	-5077
三更	-5078
下次	-5079
下面	-5080
主義	-5081
乜撚	-5082
九點	-5083
五點	-5084
人嘅	-5085
人生	-5086
住個	-5087
作家	-5088
你唔	-5089
你啦	-5090
你啲	-5091
你好	-5092
佢㗎	-5093
佢仲	-5094
佢講	-5095
係冇	-5096
係無	-5097
係生	-5098
保護	-5099
借錢	-5100
做㗎	-5101
做好	-5102
健康	-5103
傷風	-5104
兄弟	-5105
先啦	-5106
先知	-5107
兩句	-5108
八歲	-5109
公室	-5110
冇命	-5111
冇食	-5112
出門	-5113
十秒	-5114
去啦	-5115
參加	-5116
反對	-5117
古典	-5118
名呀	-5119
咁就	-5120
咁難	-5121
咁高	-5122
和華	-5123
咗三	-5124
咗半	-5125
唔啱	-5126
唔慣	-5127
喊呀	-5128
喺佢	-5129
喺張	-5130
嘢做	-5131
噪音	-5132
嚟愈	-5133
囉喎	-5134
地球	-5135
執好	-5136
壓力	-5137
壞話	-5138
多士	-5139
多數	-5140
夠膽	-5141
大啲	-5142
大我	-5143
大過	-5144
失敗	-5145
奇跡	-5146
好唔	-5147
好少	-5148
好熱	-5149
好貴	-5150
姊妹	-5151
存在	-5152
學家	-5153
寫信	-5154
寫嘅	-5155
對鞋	-5156
就冇	-5157
就瞓	-5158
就開	-5159
山頂	-5160
差嘅	-5161
市場	-5162
幅畫	-5163
幫吓	-5164
平等	-5165
度寫	-5166
度攞	-5167
廚房	-5168
廣告	-5169
建議	-5170
廿蚊	-5171
形容	-5172
後日	-5173
後面	-5174
得掂	-5175
得起	-5176
忘記	-5177
忠誠	-5178
快就	-5179
快樂	-5180
悉尼	-5181
情況	-5182
想去	-5183
慢慢	-5184
懷疑	-5185
我喇	-5186
我好	-5187
我本	-5188
我睇	-5189
打機	-5190
打開	-5191
把刀	-5192
拿大	-5193
掉轉	-5194
搵人	-5195
搵緊	-5196
擺埋	-5197
攞嚟	-5198
攞錢	-5199
支持	-5200
收過	-5201
政府	-5202
故事	-5203
教我	-5204
文㗎	-5205
文章	-5206
新嘅	-5207
新車	-5208
晒喇	-5209
晚餐	-5210
普通	-5211
會死	-5212
會食	-5213
校隊	-5214
條裙	-5215
森林	-5216
機呀	-5217
機場	-5218
正常	-5219
沖涼	-5220
洗碗	-5221
游緊	-5222
滑雪	-5223
滿意	-5224
漏咗	-5225
演員	-5226
澳洲	-5227
為咗	-5228
無咩	-5229
然後	-5230
玩得	-5231
玩緊	-5232
琴日	-5233
生存	-5234
用㗎	-5235
甩咗	-5236
白色	-5237
皮啦	-5238
真愛	-5239
真正	-5240
睇咗	-5241
睇過	-5242
石頭	-5243
禮貌	-5244
笑咗	-5245
終於	-5246
緊書	-5247
繼續	-5248
羹係	-5249
老細	-5250
聰明	-5251
背後	-5252
興奮	-5253
芝士	-5254
落水	-5255
落雪	-5256
蘿蔔	-5257
要求	-5258
覺唔	-5259
認錯	-5260
諗到	-5261
護士	-5262
貨車	-5263
買到	-5264
買嘅	-5265
貼士	-5266
起咗	-5267
足球	-5268
跑步	-5269
跟蹤	-5270
跳舞	-5271
身上	-5272
送咗	-5273
遇到	-5274
遊戲	-5275
過嚟	-5276
道歉	-5277
都講	-5278
酒精	-5279
醫院	-5280
閂埋	-5281
開啦	-5282
開會	-5283
間書	-5284
關我	-5285
隨便	-5286
隨時	-5287
隻字	-5288
靚仔	-5289
韓國	-5290
預計	-5291
食吖	-5292
食呀	-5293
食晒	-5294
飲咗	-5295
飲茶	-5296
點知	-5297
!」「	-5298
013	-5299
016	-5300
021	-5301
027	-5302
045	-5303
047	-5304
053	-5305
073	-5306
172	-5307
177	-5308
216	-5309
221	-5310
223	-5311
224	-5312
239	-5313
258	-5314
259	-5315
265	-5316
280	-5317
296	-5318
319	-5319
333	-5320
337	-5321
351	-5322
355	-5323
357	-5324
380	-5325
407	-5326
423	-5327
438	-5328
440	-5329
443	-5330
468	-5331
480	-5332
542	-5333
547	-5334
567	-5335
627	-5336
629	-5337
630	-5338
631	-5339
637	-5340
664	-5341
712	-5342
778	-5343
785	-5344
801	-5345
853	-5346
901	-5347
908	-5348
917	-5349
980	-5350
986	-5351
:30	-5352
Are	-5353
How	-5354
The	-5355
Why	-5356
aid	-5357
alc	-5358
ara	-5359
ari	-5360
bly	-5361
chn	-5362
ded	-5363
eba	-5364
eny	-5365
ged	-5366
hem	-5367
ilt	-5368
ily	-5369
ina	-5370
ins	-5371
isa	-5372
mal	-5373
ole	-5374
oll	-5375
omm	-5376
oof	-5377
rac	-5378
ral	-5379
tle	-5380
urt	-5381
ute	-5382
vil	-5383
▁Gu	-5384
▁Je	-5385
▁Ky	-5386
▁em	-5387
▁上帝	-5388
▁中國	-5389
▁佢仲	-5390
▁佢啲	-5391
▁佢嘅	-5392
▁佢嬲	-5393
▁佢識	-5394
▁做咩	-5395
▁天氣	-5396
▁已經	-5397
▁廁所	-5398
▁我上	-5399
▁我整	-5400
▁我聽	-5401
▁我講	-5402
▁我買	-5403
▁我阿	-5404
▁有咩	-5405
▁歐洲	-5406
▁試吓	-5407
▁請你	-5408
▁警察	-5409
▁跟住	-5410
▁間屋	-5411
▁阿爸	-5412
▁隻貓	-5413
▁音樂	-5414
一個月	-5415
不如去	-5416
乜都冇	-5417
份報告	-5418
佢唔會	-5419
佢老豆	-5420
佢講嘢	-5421
使唔使	-5422
個真相	-5423
個結果	-5424
出門口	-5425
去咗聽	-5426
去咗邊	-5427
去嗰度	-5428
咁嘅事	-5429
咗你個	-5430
咗咁多	-5431
咗嗰個	-5432
咗落個	-5433
咩事呀	-5434
唔好講	-5435
唔得閒	-5436
啲老師	-5437
喺呢到	-5438
嗰陣就	-5439
嘅方法	-5440
嘅朋友	-5441
嘅首都	-5442
噉嘅嘢	-5443
嚟做咩	-5444
嚟搵我	-5445
多次呀	-5446
好開心	-5447
如果你	-5448
學法文	-5449
對身體	-5450
就出聲	-5451
就可以	-5452
就好似	-5453
就好難	-5454
巴士站	-5455
幫我哋	-5456
幾多張	-5457
幾耐呀	-5458
建築物	-5459
後生仔	-5460
快啲啦	-5461
想像中	-5462
愈嚟愈	-5463
意思呀	-5464
成世人	-5465
我可以	-5466
我就借	-5467
我就會	-5468
搞咩呀	-5469
搞得掂	-5470
搭巴士	-5471
撞到佢	-5472
收過最	-5473
整唔見	-5474
新嚟㗎	-5475
日日都	-5476
星期一	-5477
會落雨	-5478
有一個	-5479
有少少	-5480
根本就	-5481
條鎖匙	-5482
業之後	-5483
永遠都	-5484
游緊水	-5485
火車站	-5486
班朋友	-5487
眼中嘅	-5488
知嘅嘢	-5489
簽個名	-5490
紅色嘅	-5491
緊我哋	-5492
聖誕卡	-5493
聽音樂	-5494
自己整	-5495
落好似	-5496
落雨喇	-5497
行路去	-5498
話佢哋	-5499
辦公室	-5500
都唔明	-5501
鍾意佢	-5502
鍾意食	-5503
鐘起身	-5504
附近住	-5505
隻狗呀	-5506
電話響	-5507
食咗飯	-5508
食啲嘢	-5509
食煙㗎	-5510
飲咖啡	-5511
高過你	-5512
0346	-5513
0919	-5514
5373	-5515
7298	-5516
8145	-5517
8317	-5518
8386	-5519
9268	-5520
9420	-5521
9636	-5522
anna	-5523
arty	-5524
atur	-5525
book	-5526
ched	-5527
eace	-5528
edic	-5529
eech	-5530
fort	-5531
inue	-5532
irac	-5533
ldom	-5534
lied	-5535
line	-5536
olut	-5537
omen	-5538
oose	-5539
port	-5540
pped	-5541
resh	-5542
teen	-5543
ured	-5544
urse	-5545
used	-5546
▁103	-5547
▁170	-5548
▁192	-5549
▁212	-5550
▁217	-5551
▁219	-5552
▁240	-5553
▁257	-5554
▁287	-5555
▁300	-5556
▁306	-5557
▁323	-5558
▁328	-5559
▁334	-5560
▁346	-5561
▁350	-5562
▁354	-5563
▁362	-5564
▁363	-5565
▁374	-5566
▁375	-5567
▁379	-5568
▁396	-5569
▁397	-5570
▁404	-5571
▁413	-5572
▁424	-5573
▁450	-5574
▁462	-5575
▁463	-5576
▁476	-5577
▁486	-5578
▁490	-5579
▁495	-5580
▁515	-5581
▁521	-5582
▁533	-5583
▁569	-5584
▁602	-5585
▁633	-5586
▁634	-5587
▁644	-5588
▁650	-5589
▁676	-5590
▁698	-5591
▁700	-5592
▁716	-5593
▁734	-5594
▁735	-5595
▁759	-5596
▁868	-5597
▁And	-5598
▁Bel	-5599
▁Has	-5600
▁Hey	-5601
▁Jim	-5602
▁New	-5603
▁Put	-5604
▁Try	-5605
▁Was	-5606
▁bab	-5607
▁del	-5608
▁doz	-5609
▁ess	-5610
▁inv	-5611
▁lay	-5612
▁low	-5613
▁nea	-5614
▁opp	-5615
▁sec	-5616
▁sli	-5617
▁spo	-5618
▁tie	-5619
▁tip	-5620
▁une	-5621
▁wed	-5622
▁你喺度	-5623
▁你好似	-5624
▁你生日	-5625
▁你真係	-5626
▁你覺唔	-5627
▁你買咗	-5628
▁佢係咪	-5629
▁佢出盡	-5630
▁佢尋晚	-5631
▁佢成日	-5632
▁佢而家	-5633
▁冇可能	-5634
▁呢間房	-5635
▁唔怪得	-5636
▁我依家	-5637
▁我哋有	-5638
▁我唔見	-5639
▁我喺度	-5640
▁我嗰陣	-5641
▁我好似	-5642
▁我好攰	-5643
▁我想學	-5644
▁我應承	-5645
▁我搵緊	-5646
▁我真係	-5647
▁我等緊	-5648
▁我肯定	-5649
▁我諗你	-5650
▁我通常	-5651
▁架火車	-5652
▁而家啲	-5653
▁雖然佢	-5654
以為自己	-5655
但係佢哋	-5656
俾其他人	-5657
個禮拜一	-5658
分鐘有六	-5659
去圖書館	-5660
古典音樂	-5661
呢個世界	-5662
咗半個鐘	-5663
唔想出街	-5664
唔開心呀	-5665
噉嘅地方	-5666
好危險㗎	-5667
好嘥時間	-5668
好鍾意喺	-5669
對佢嚟講	-5670
對我嚟講	-5671
已經走咗	-5672
所以我哋	-5673
打咗電話	-5674
有幾多人	-5675
望落好似	-5676
準時嚟到	-5677
演講比賽	-5678
用信用卡	-5679
而家開始	-5680
背後講人	-5681
話俾佢聽	-5682
講多次呀	-5683
超級市場	-5684
足球校隊	-5685
返咗屋企	-5686
遲到㗎喇	-5687
部收音機	-5688
都喺屋企	-5689
12248	-5690
alcul	-5691
alian	-5692
alist	-5693
ankly	-5694
arian	-5695
ashed	-5696
asses	-5697
aster	-5698
ately	-5699
cohol	-5700
ealth	-5701
eared	-5702
essed	-5703
ising	-5704
itter	-5705
loyed	-5706
ralia	-5707
round	-5708
urred	-5709
vator	-5710
▁1025	-5711
▁1028	-5712
▁1068	-5713
▁1069	-5714
▁1079	-5715
▁1399	-5716
▁1762	-5717
▁1884	-5718
▁1974	-5719
▁2077	-5720
▁2275	-5721
▁2422	-5722
▁2428	-5723
▁2473	-5724
▁2496	-5725
▁2502	-5726
▁2516	-5727
▁2584	-5728
▁2594	-5729
▁2600	-5730
▁2636	-5731
▁2641	-5732
▁2675	-5733
▁2865	-5734
▁2874	-5735
▁2943	-5736
▁2970	-5737
▁2976	-5738
▁3015	-5739
▁3126	-5740
▁3170	-5741
▁3195	-5742
▁3265	-5743
▁3854	-5744
▁3871	-5745
▁3898	-5746
▁3903	-5747
▁3910	-5748
▁3956	-5749
▁3963	-5750
▁4022	-5751
▁4105	-5752
▁4106	-5753
▁4218	-5754
▁4336	-5755
▁4575	-5756
▁4593	-5757
▁4616	-5758
▁4662	-5759
▁4973	-5760
▁5200	-5761
▁5295	-5762
▁5374	-5763
▁5545	-5764
▁5620	-5765
▁5752	-5766
▁5900	-5767
▁5943	-5768
▁5956	-5769
▁6045	-5770
▁6163	-5771
▁6176	-5772
▁6335	-5773
▁6428	-5774
▁6484	-5775
▁6545	-5776
▁6551	-5777
▁6830	-5778
▁6843	-5779
▁6873	-5780
▁7035	-5781
▁7045	-5782
▁7085	-5783
▁7506	-5784
▁7508	-5785
▁8645	-5786
▁8771	-5787
▁9031	-5788
▁9588	-5789
▁Aren	-5790
▁Aust	-5791
▁Call	-5792
▁Each	-5793
▁Hold	-5794
▁Last	-5795
▁Lisa	-5796
▁Make	-5797
▁Many	-5798
▁More	-5799
▁Obvi	-5800
▁Rome	-5801
▁Tato	-5802
▁Wait	-5803
▁argu	-5804
▁cars	-5805
▁chop	-5806
▁clim	-5807
▁conf	-5808
▁draw	-5809
▁educ	-5810
▁fash	-5811
▁fing	-5812
▁fond	-5813
▁hadn	-5814
▁harm	-5815
▁heat	-5816
▁hill	-5817
▁incl	-5818
▁land	-5819
▁legs	-5820
▁lift	-5821
▁line	-5822
▁lots	-5823
▁mess	-5824
▁page	-5825
▁paid	-5826
▁pair	-5827
▁poet	-5828
▁roll	-5829
▁self	-5830
▁send	-5831
▁sens	-5832
▁soft	-5833
▁star	-5834
▁tong	-5835
▁vain	-5836
▁wash	-5837
▁whom	-5838
▁冇人會再	-5839
▁呢個問題	-5840
▁呢度附近	-5841
▁我一定會	-5842
▁我一定要	-5843
▁我哋今日	-5844
▁我哋想知	-5845
▁我最鍾意	-5846
▁有啲人話	-5847
▁老實講吖	-5848
係世界上最	-5849
收過最正嘅	-5850
自己一個人	-5851
重要嘅唔係	-5852
......	-5853
engers	-5854
ential	-5855
itness	-5856
itting	-5857
moking	-5858
orrect	-5859
overed	-5860
▁10716	-5861
▁10749	-5862
▁10756	-5863
▁10838	-5864
▁12401	-5865
▁12986	-5866
▁13432	-5867
▁15314	-5868
▁17746	-5869
▁18916	-5870
▁19855	-5871
▁21040	-5872
▁21832	-5873
▁22262	-5874
▁33643	-5875
▁42045	-5876
▁43774	-5877
▁49176	-5878
▁53184	-5879
▁56414	-5880
▁57066	-5881
▁57206	-5882
▁57770	-5883
▁57816	-5884
▁57950	-5885
▁59270	-5886
▁60822	-5887
▁60823	-5888
▁60974	-5889
▁61059	-5890
▁61063	-5891
▁61073	-5892
▁61166	-5893
▁61201	-5894
▁64835	-5895
▁69446	-5896
▁69611	-5897
▁69612	-5898
▁69619	-5899
▁75970	-5900
▁79096	-5901
▁79881	-5902
▁87669	-5903
▁87670	-5904
▁94993	-5905
▁Bring	-5906
▁Drive	-5907
▁Guess	-5908
▁Spain	-5909
▁Whose	-5910
▁along	-5911
▁birds	-5912
▁blood	-5913
▁clock	-5914
▁cover	-5915
▁dance	-5916
▁docum	-5917
▁drank	-5918
▁drunk	-5919
▁enter	-5920
▁exerc	-5921
▁fired	-5922
▁fresh	-5923
▁gains	-5924
▁games	-5925
▁given	-5926
▁gradu	-5927
▁grass	-5928
▁guest	-5929
▁hotel	-5930
▁loved	-5931
▁medic	-5932
▁needs	-5933
▁nurse	-5934
▁ought	-5935
▁peace	-5936
▁press	-5937
▁refer	-5938
▁scold	-5939
▁sight	-5940
▁sixty	-5941
▁socks	-5942
▁songs	-5943
▁spoke	-5944
▁sting	-5945
▁stove	-5946
▁sungl	-5947
▁third	-5948
▁throw	-5949
▁tooth	-5950
▁truck	-5951
▁usual	-5952
▁video	-5953
▁worst	-5954
▁佢應承咗我	-5955
▁壞習慣好難	-5956
▁我下個禮拜	-5957
▁我鍾意睇書	-5958
分鐘有六十秒	-5959
幾多張聖誕卡	-5960
背後講人壞話	-5961
間學校附近住	-5962
anation	-5963
ference	-5964
iracles	-5965
olutely	-5966
▁106895	-5967
▁107599	-5968
▁108517	-5969
▁415943	-5970
▁attend	-5971
▁beauty	-5972
▁beings	-5973
▁belong	-5974
▁bother	-5975
▁bucket	-5976
▁calcul	-5977
▁charge	-5978
▁cheese	-5979
▁church	-5980
▁closed	-5981
▁corner	-5982
▁descri	-5983
▁dollar	-5984
▁favour	-5985
▁habits	-5986
▁heater	-5987
▁houses	-5988
▁larger	-5989
▁materi	-5990
▁nearby	-5991
▁player	-5992
▁pocket	-5993
▁robbed	-5994
▁seeing	-5995
▁seldom	-5996
▁single	-5997
▁sooner	-5998
▁sounds	-5999
▁speech	-6000
▁spring	-6001
▁stress	-6002
▁transl	-6003
▁wasted	-6004
▁yellow	-6005
▁可唔可以幫我	-6006
▁1188107	-6007
▁1312248	-6008
▁6479112	-6009
▁Britain	-6010
▁Frankly	-6011
▁Italian	-6012
▁Mondays	-6013
▁Someone	-6014
▁Tatoeba	-6015
▁account	-6016
▁answers	-6017
▁anybody	-6018
▁brought	-6019
▁carried	-6020
▁checked	-6021
▁chicken	-6022
▁contact	-6023
▁customs	-6024
▁depends	-6025
▁fashion	-6026
▁finally	-6027
▁fishing	-6028
▁follows	-6029
▁glasses	-6030
▁jumping	-6031
▁nearest	-6032
▁outside	-6033
▁pleased	-6034
▁refused	-6035
▁request	-6036
▁serious	-6037
▁sisters	-6038
▁treated	-6039
▁willing	-6040
▁Everyone	-6041
▁believes	-6042
▁elevator	-6043
▁envelope	-6044
▁handsome	-6045
▁improved	-6046
▁magazine	-6047
▁neighbor	-6048
▁occurred	-6049
▁position	-6050
▁possible	-6051
▁presents	-6052
▁terribly	-6053
▁vacation	-6054
▁whenever	-6055
▁wherever	-6056
▁Australia	-6057
▁Sometimes	-6058
▁carefully	-6059
▁classical	-6060
▁committed	-6061
▁countries	-6062
▁following	-6063
▁introduce	-6064
▁languages	-6065
▁president	-6066
▁sensitive	-6067
▁sentences	-6068
▁seriously	-6069
▁somewhere	-6070
▁surprised	-6071
▁我哋喺間學校附近住	-6072
▁absolutely	-6073
▁completely	-6074
▁passengers	-6075
▁sunglasses	-6076
▁understood	-6077
▁explanation	-6078
▁supermarket	-6079
".	-6080
'.	-6081
Be	-6082
Do	-6083
Is	-6084
bs	-6085
ey	-6086
gn	-6087
ks	-6088
lu	-6089
no	-6090
ny	-6091
pe	-6092
pl	-6093
rg	-6094
rp	-6095
sh	-6096
tr	-6097
yc	-6098
▁他	-6099
▁企	-6100
▁信	-6101
▁呀	-6102
▁哦	-6103
▁嗱	-6104
▁嚴	-6105
▁夠	-6106
▁太	-6107
▁想	-6108
▁手	-6109
▁揸	-6110
▁會	-6111
▁瑞	-6112
▁瑪	-6113
▁由	-6114
▁萬	-6115
▁識	-6116
▁超	-6117
一切	-6118
一句	-6119
一唔	-6120
一律	-6121
一條	-6122
一步	-6123
一班	-6124
一睇	-6125
一聲	-6126
三千	-6127
三餐	-6128
主意	-6129
乘客	-6130
九七	-6131
乞人	-6132
乾淨	-6133
事咩	-6134
五千	-6135
五歲	-6136
京都	-6137
人呀	-6138
人喇	-6139
人房	-6140
仍然	-6141
代表	-6142
仲喺	-6143
住呀	-6144
住啲	-6145
佛山	-6146
你㗎	-6147
你去	-6148
你咪	-6149
你喺	-6150
你就	-6151
你明	-6152
你要	-6153
佢吖	-6154
佢呀	-6155
佢喇	-6156
佢喺	-6157
佢囉	-6158
佢都	-6159
係去	-6160
係吉	-6161
係呀	-6162
係最	-6163
係會	-6164
係黃	-6165
係黑	-6166
保持	-6167
個天	-6168
個頭	-6169
借你	-6170
做過	-6171
入場	-6172
全力	-6173
兩年	-6174
兩日	-6175
兩歲	-6176
兩點	-6177
其中	-6178
冇咩	-6179
再睇	-6180
凍喇	-6181
凳坐	-6182
到一	-6183
到你	-6184
到去	-6185
到好	-6186
到彈	-6187
到死	-6188
前面	-6189
創造	-6190
加油	-6191
匿埋	-6192
去囉	-6193
去買	-6194
去釣	-6195
又有	-6196
受咗	-6197
口音	-6198
叫你	-6199
可靠	-6200
合格	-6201
同事	-6202
同人	-6203
同志	-6204
同水	-6205
名同	-6206
吓你	-6207
吓呀	-6208
吞拿	-6209
吸煙	-6210
呢部	-6211
周身	-6212
咁夜	-6213
咁諗	-6214
咁靚	-6215
咋嘛	-6216
咖喱	-6217
咗份	-6218
咗線	-6219
咪叫	-6220
咪得	-6221
唔中	-6222
唔俾	-6223
唔包	-6224
唔嚟	-6225
唔定	-6226
唔郁	-6227
唔難	-6228
唯有	-6229
唱會	-6230
啫喱	-6231
啲啦	-6232
啲字	-6233
啲花	-6234
啲雪	-6235
喊啦	-6236
喺二	-6237
喺客	-6238
嗌交	-6239
嗰班	-6240
嘅呢	-6241
嘅枱	-6242
嘅路	-6243
嘅魚	-6244
嘢飲	-6245
噉你	-6246
噉講	-6247
嚟吖	-6248
嚟用	-6249
嚟買	-6250
嚟都	-6251
四嘅	-6252
四點	-6253
因住	-6254
埋你	-6255
城市	-6256
基督	-6257
外套	-6258
大聲	-6259
大雨	-6260
天文	-6261
太過	-6262
好叻	-6263
好味	-6264
好嬲	-6265
好悶	-6266
好黑	-6267
妒忌	-6268
媽咪	-6269
嬲緊	-6270
孤寒	-6271
學緊	-6272
學習	-6273
學費	-6274
宇宙	-6275
安靜	-6276
定唔	-6277
寧願	-6278
寫字	-6279
專心	-6280
對你	-6281
就快	-6282
就搭	-6283
就算	-6284
幅相	-6285
幫佢	-6286
幫助	-6287
平嘅	-6288
平時	-6289
年喇	-6290
幸福	-6291
幾歲	-6292
座城	-6293
廿四	-6294
影相	-6295
得出	-6296
得到	-6297
得呀	-6298
得幾	-6299
得揀	-6300
德里	-6301
心學	-6302
急急	-6303
想做	-6304
想喺	-6305
想買	-6306
想食	-6307
意外	-6308
意義	-6309
愛上	-6310
愛你	-6311
愛佢	-6312
慣咗	-6313
慶祝	-6314
成績	-6315
我做	-6316
我呢	-6317
我喺	-6318
我話	-6319
戒指	-6320
戰爭	-6321
戲院	-6322
手字	-6323
拉咗	-6324
拜拜	-6325
提供	-6326
提琴	-6327
搞唔	-6328
搬咗	-6329
擺明	-6330
攞去	-6331
攪錯	-6332
教堂	-6333
教育	-6334
敲咗	-6335
斯坦	-6336
新聞	-6337
日文	-6338
日記	-6339
昆蟲	-6340
時話	-6341
晒力	-6342
曲奇	-6343
有名	-6344
有時	-6345
有架	-6346
期望	-6347
未夠	-6348
本簿	-6349
某啲	-6350
條村	-6351
概念	-6352
模型	-6353
權利	-6354
歌呀	-6355
母語	-6356
每一	-6357
法官	-6358
泳池	-6359
浪費	-6360
淨返	-6361
減肥	-6362
測驗	-6363
漏低	-6364
炒咗	-6365
無乜	-6366
無謂	-6367
熱呀	-6368
燈膽	-6369
爬山	-6370
爭啲	-6371
牛油	-6372
物理	-6373
物質	-6374
玩㗎	-6375
玩呀	-6376
玻璃	-6377
環境	-6378
環遊	-6379
生命	-6380
生意	-6381
用咗	-6382
用法	-6383
由朝	-6384
畀你	-6385
畢咗	-6386
當你	-6387
病人	-6388
痛呀	-6389
發夢	-6390
白車	-6391
百蚊	-6392
目標	-6393
相對	-6394
着咗	-6395
睇呀	-6396
瞓過	-6397
知㗎	-6398
破壞	-6399
秘密	-6400
竟然	-6401
算啦	-6402
粒聲	-6403
粒鈕	-6404
粹係	-6405
精神	-6406
紙板	-6407
經驗	-6408
緊要	-6409
緊邊	-6410
總統	-6411
罪行	-6412
習俗	-6413
翻譯	-6414
老鼠	-6415
耐性	-6416
聯絡	-6417
聽㗎	-6418
聽過	-6419
自在	-6420
舊石	-6421
花板	-6422
花樽	-6423
英式	-6424
落緊	-6425
著到	-6426
著衫	-6427
蕃茄	-6428
處理	-6429
行咗	-6430
行緊	-6431
街度	-6432
表達	-6433
表面	-6434
袋度	-6435
裝得	-6436
要去	-6437
規則	-6438
說話	-6439
請佢	-6440
論文	-6441
諗起	-6442
證人	-6443
證明	-6444
識條	-6445
買俾	-6446
買啲	-6447
賣咗	-6448
贊成	-6449
超過	-6450
越好	-6451
足夠	-6452
跳呀	-6453
車尾	-6454
車站	-6455
返場	-6456
逆境	-6457
過去	-6458
遠路	-6459
選擇	-6460
邊到	-6461
郵票	-6462
都啱	-6463
鄉下	-6464
醒目	-6465
錯㗎	-6466
閂門	-6467
開窗	-6468
開門	-6469
關心	-6470
阿伯	-6471
隻腳	-6472
集中	-6473
雞蛋	-6474
雪櫃	-6475
電子	-6476
非常	-6477
頭到	-6478
食啲	-6479
飲湯	-6480
首詩	-6481
香港	-6482
騎馬	-6483
驚錯	-6484
高咗	-6485
魔術	-6486
黑板	-6487
點使	-6488
042	-6489
071	-6490
082	-6491
086	-6492
132	-6493
190	-6494
192	-6495
194	-6496
201	-6497
227	-6498
228	-6499
246	-6500
251	-6501
254	-6502
262	-6503
264	-6504
267	-6505
268	-6506
331	-6507
332	-6508
341	-6509
342	-6510
369	-6511
429	-6512
430	-6513
452	-6514
478	-6515
482	-6516
487	-6517
541	-6518
549	-6519
550	-6520
561	-6521
579	-6522
580	-6523
591	-6524
598	-6525
605	-6526
638	-6527
641	-6528
648	-6529
652	-6530
657	-6531
661	-6532
663	-6533
666	-6534
667	-6535
669	-6536
674	-6537
775	-6538
784	-6539
802	-6540
804	-6541
810	-6542
873	-6543
874	-6544
885	-6545
886	-6546
915	-6547
932	-6548
982	-6549
985	-6550
993	-6551
:00	-6552
Can	-6553
Who	-6554
Yes	-6555
ack	-6556
adr	-6557
ady	-6558
ama	-6559
ana	-6560
ape	-6561
arb	-6562
ats	-6563
ban	-6564
ced	-6565
cer	-6566
del	-6567
eor	-6568
ext	-6569
gea	-6570
gle	-6571
gue	-6572
het	-6573
hov	-6574
idy	-6575
ier	-6576
imi	-6577
iol	-6578
isp	-6579
isy	-6580
its	-6581
kay	-6582
kes	-6583
key	-6584
mit	-6585
mon	-6586
oha	-6587
omy	-6588
oop	-6589
orb	-6590
oss	-6591
ots	-6592
pin	-6593
ppy	-6594
ran	-6595
rat	-6596
rem	-6597
ric	-6598
ron	-6599
sel	-6600
set	-6601
sia	-6602
sts	-6603
ths	-6604
thy	-6605
ues	-6606
uit	-6607
ule	-6608
umb	-6609
ume	-6610
vid	-6611
vir	-6612
way	-6613
▁Am	-6614
▁Ed	-6615
▁Ha	-6616
▁bi	-6617
▁di	-6618
▁ef	-6619
▁fe	-6620
▁ow	-6621
▁sl	-6622
▁vo	-6623
▁一個	-6624
▁仆街	-6625
▁今晚	-6626
▁你今	-6627
▁你信	-6628
▁你出	-6629
▁你咁	-6630
▁你啱	-6631
▁佢做	-6632
▁佢叫	-6633
▁佢同	-6634
▁佢寫	-6635
▁佢扮	-6636
▁佢捉	-6637
▁佢為	-6638
▁佢開	-6639
▁個會	-6640
▁兩個	-6641
▁呢張	-6642
▁呢排	-6643
▁呢粒	-6644
▁咩聲	-6645
▁問題	-6646
▁嗰位	-6647
▁噉樣	-6648
▁嚴格	-6649
▁太陽	-6650
▁尋晚	-6651
▁幾時	-6652
▁悉尼	-6653
▁我做	-6654
▁我又	-6655
▁我地	-6656
▁我坐	-6657
▁我打	-6658
▁我盡	-6659
▁我等	-6660
▁我舉	-6661
▁我跟	-6662
▁我連	-6663
▁我驚	-6664
▁本書	-6665
▁條友	-6666
▁無論	-6667
▁王國	-6668
▁琴晚	-6669
▁瑪莉	-6670
▁睇嚟	-6671
▁第一	-6672
▁美國	-6673
▁英國	-6674
▁語言	-6675
▁開始	-6676
▁隨便	-6677
▁食煙	-6678
一個係	-6679
一個字	-6680
一個鐘	-6681
一定係	-6682
一路都	-6683
三個鐘	-6684
三分鐘	-6685
三年前	-6686
世界語	-6687
並唔係	-6688
乜嘢呀	-6689
乞人憎	-6690
亦都唔	-6691
人嚟㗎	-6692
任何嘢	-6693
份報紙	-6694
估吓我	-6695
但係又	-6696
你做咩	-6697
你喺度	-6698
你嗰陣	-6699
你已經	-6700
你老母	-6701
你鍾意	-6702
你需要	-6703
你點解	-6704
佢個名	-6705
佢幾時	-6706
佢真係	-6707
佢阿媽	-6708
係吉嘅	-6709
係幾時	-6710
俾你吖	-6711
俾你飲	-6712
俾佢哋	-6713
俾幾多	-6714
俾我吖	-6715
俾我知	-6716
個女仔	-6717
個醫生	-6718
倒咗啲	-6719
做唔到	-6720
做運動	-6721
入唔到	-6722
入面最	-6723
全世界	-6724
兩點半	-6725
其實佢	-6726
冇可能	-6727
冇啲人	-6728
冇時間	-6729
出嚟呀	-6730
到佢嘅	-6731
到嗰陣	-6732
前幾日	-6733
功課喇	-6734
加人工	-6735
努力啲	-6736
十二點	-6737
十八歲	-6738
十年喇	-6739
去日本	-6740
吞拿魚	-6741
呢樣嘢	-6742
咁多嘢	-6743
咁多年	-6744
咁好食	-6745
咁快就	-6746
咗一陣	-6747
咗冠軍	-6748
咗啲錢	-6749
咗幾耐	-6750
咗我兩	-6751
咪得囉	-6752
唔使驚	-6753
唔係咁	-6754
唔到佢	-6755
唔同意	-6756
唔嚟嘅	-6757
唔會有	-6758
唔知道	-6759
唔知阿	-6760
唔識講	-6761
唔需要	-6762
啱啱好	-6763
啲蘋果	-6764
喺個天	-6765
喺張枱	-6766
喺東京	-6767
嚟嘅唧	-6768
因為你	-6769
坐咗喺	-6770
埲牆度	-6771
外國人	-6772
多啲錢	-6773
大學生	-6774
天文學	-6775
天氣好	-6776
好似你	-6777
好多人	-6778
好多嘢	-6779
好多雪	-6780
好大嘅	-6781
好好噉	-6782
好滿意	-6783
好肯定	-6784
好舒服	-6785
好過啦	-6786
好靚呀	-6787
好靚喎	-6788
完全冇	-6789
寫得好	-6790
就容易	-6791
就已經	-6792
就會變	-6793
幫到我	-6794
幾分鐘	-6795
幾多歲	-6796
幾多號	-6797
幾時會	-6798
幾耐㗎	-6799
彈結他	-6800
得濟喇	-6801
快就會	-6802
急急腳	-6803
慢少少	-6804
應該會	-6805
成個月	-6806
我係咪	-6807
我其實	-6808
我哋呀	-6809
我哋都	-6810
我唔知	-6811
我已經	-6812
我想搵	-6813
我而家	-6814
我諗住	-6815
我都係	-6816
我阿媽	-6817
我隻手	-6818
我頭先	-6819
所以佢	-6820
所有嘢	-6821
手車好	-6822
掉轉曬	-6823
搞到佢	-6824
搭的士	-6825
搭飛機	-6826
整咗個	-6827
整污糟	-6828
早起身	-6829
晒㗎喇	-6830
普通話	-6831
最後一	-6832
會喺啲	-6833
會好天	-6834
有啲嘢	-6835
有興趣	-6836
本小說	-6837
本書呀	-6838
本雜誌	-6839
架新車	-6840
棵聖誕	-6841
死咗火	-6842
每日都	-6843
法國文	-6844
演唱會	-6845
為自己	-6846
照顧我	-6847
煮嘢食	-6848
瞓得好	-6849
瞓著咗	-6850
禮拜日	-6851
第一次	-6852
第二啲	-6853
純粹係	-6854
細路呀	-6855
練琴呀	-6856
而家又	-6857
聖誕假	-6858
聽唔明	-6859
肚餓呀	-6860
英文嘅	-6861
落大雨	-6862
藍色嘅	-6863
見過你	-6864
覺得佢	-6865
覺得我	-6866
話你個	-6867
話你知	-6868
話聽日	-6869
諗住做	-6870
講咗個	-6871
講咩話	-6872
講埋啲	-6873
識佢㗎	-6874
讀大學	-6875
讀緊書	-6876
買咗部	-6877
買唔到	-6878
賣晒喇	-6879
返工返	-6880
過座山	-6881
邊個㗎	-6882
邊度嚟	-6883
部電話	-6884
都冇乜	-6885
都冇人	-6886
都唔肯	-6887
都應該	-6888
都無謂	-6889
酒精消	-6890
醒唔起	-6891
鍾意人	-6892
間唔中	-6893
除咗副	-6894
隻手嚟	-6895
隻狗就	-6896
電燈膽	-6897
食多啲	-6898
馬德里	-6899
髮型屋	-6900
點解我	-6901
0135	-6902
0476	-6903
0509	-6904
0656	-6905
0698	-6906
0945	-6907
1209	-6908
1443	-6909
1444	-6910
1512	-6911
1667	-6912
1676	-6913
1763	-6914
2476	-6915
3302	-6916
4316	-6917
4435	-6918
4528	-6919
5302	-6920
5309	-6921
5328	-6922
6584	-6923
7252	-6924
7752	-6925
7775	-6926
7832	-6927
8174	-6928
8186	-6929
8258	-6930
8451	-6931
8951	-6932
8982	-6933
9180	-6934
9408	-6935
9425	-6936
9603	-6937
9630	-6938
9788	-6939
9872	-6940
That	-6941
When	-6942
acha	-6943
aked	-6944
amed	-6945
anic	-6946
anta	-6947
anto	-6948
appy	-6949
arin	-6950
born	-6951
case	-6952
cess	-6953
elly	-6954
elve	-6955
ency	-6956
ford	-6957
gers	-6958
ging	-6959
hale	-6960
head	-6961
ible	-6962
icer	-6963
iche	-6964
icle	-6965
iing	-6966
ilar	-6967
ilos	-6968
ined	-6969
ires	-6970
irit	-6971
laim	-6972
lebr	-6973
like	-6974
medi	-6975
merg	-6976
ners	-6977
noxi	-6978
olit	-6979
oobs	-6980
opes	-6981
pite	-6982
pose	-6983
rict	-6984
rike	-6985
roat	-6986
rots	-6987
rown	-6988
rupt	-6989
semb	-6990
sing	-6991
sper	-6992
tern	-6993
tery	-6994
uded	-6995
udge	-6996
unde	-6997
vate	-6998
vent	-6999
wise	-7000
writ	-7001
▁105	-7002
▁114	-7003
▁123	-7004
▁133	-7005
▁146	-7006
▁155	-7007
▁161	-7008
▁182	-7009
▁208	-7010
▁249	-7011
▁260	-7012
▁286	-7013
▁288	-7014
▁290	-7015
▁299	-7016
▁331	-7017
▁335	-7018
▁340	-7019
▁361	-7020
▁371	-7021
▁378	-7022
▁384	-7023
▁414	-7024
▁418	-7025
▁469	-7026
▁473	-7027
▁479	-7028
▁482	-7029
▁488	-7030
▁492	-7031
▁493	-7032
▁497	-7033
▁503	-7034
▁517	-7035
▁528	-7036
▁542	-7037
▁553	-7038
▁555	-7039
▁559	-7040
▁566	-7041
▁571	-7042
▁580	-7043
▁584	-7044
▁590	-7045
▁625	-7046
▁626	-7047
▁661	-7048
▁666	-7049
▁699	-7050
▁706	-7051
▁708	-7052
▁743	-7053
▁821	-7054
▁833	-7055
▁893	-7056
▁Bra	-7057
▁Bre	-7058
▁But	-7059
▁Dam	-7060
▁Fos	-7061
▁Ign	-7062
▁Lea	-7063
▁Old	-7064
▁Say	-7065
▁See	-7066
▁Won	-7067
▁aid	-7068
▁ast	-7069
▁aud	-7070
▁aut	-7071
▁cir	-7072
▁cop	-7073
▁cow	-7074
▁cre	-7075
▁cub	-7076
▁dip	-7077
▁eff	-7078
▁egg	-7079
▁emb	-7080
▁enc	-7081
▁eng	-7082
▁esc	-7083
▁fla	-7084
▁fog	-7085
▁gay	-7086
▁gon	-7087
▁inj	-7088
▁ink	-7089
▁jer	-7090
▁joy	-7091
▁kil	-7092
▁lab	-7093
▁laz	-7094
▁lou	-7095
▁mot	-7096
▁nin	-7097
▁non	-7098
▁obs	-7099
▁oil	-7100
▁opt	-7101
▁pou	-7102
▁rab	-7103
▁raw	-7104
▁sil	-7105
▁sky	-7106
▁sou	-7107
▁spe	-7108
▁ste	-7109
▁tal	-7110
▁tax	-7111
▁top	-7112
▁tun	-7113
▁世界上	-7114
▁你今年	-7115
▁你係我	-7116
▁你做乜	-7117
▁你實係	-7118
▁你尋日	-7119
▁你想去	-7120
▁你眼瞓	-7121
▁你聽日	-7122
▁你至少	-7123
▁你話佢	-7124
▁你講緊	-7125
▁你隻錶	-7126
▁佢住喺	-7127
▁佢係我	-7128
▁佢做咩	-7129
▁佢去到	-7130
▁佢哋唔	-7131
▁佢唔想	-7132
▁佢唔知	-7133
▁佢問我	-7134
▁佢喺個	-7135
▁佢喺度	-7136
▁佢好少	-7137
▁佢應該	-7138
▁佢識講	-7139
▁佢贏咗	-7140
▁佢阿爸	-7141
▁個老師	-7142
▁個醫生	-7143
▁冇心學	-7144
▁呢啲書	-7145
▁呢部機	-7146
▁呢間屋	-7147
▁唔好喺	-7148
▁唔好話	-7149
▁喺嗰度	-7150
▁噉樣做	-7151
▁快啲啦	-7152
▁我個仔	-7153
▁我去咗	-7154
▁我叫佢	-7155
▁我叫咗	-7156
▁我可以	-7157
▁我同我	-7158
▁我呢排	-7159
▁我咩都	-7160
▁我哋係	-7161
▁我哋個	-7162
▁我哋唔	-7163
▁我唔識	-7164
▁我好耐	-7165
▁我屋企	-7166
▁我幫你	-7167
▁我想你	-7168
▁我想飲	-7169
▁我打爛	-7170
▁我知道	-7171
▁我要去	-7172
▁我鐘意	-7173
▁我隻貓	-7174
▁日本人	-7175
▁有啲嘢	-7176
▁歐洲人	-7177
▁淨係得	-7178
▁而家係	-7179
▁耶和華	-7180
▁聖誕節	-7181
▁聽講佢	-7182
▁舊年落	-7183
▁蕾拉好	-7184
▁話時話	-7185
▁電話響	-7186
▁麻煩你	-7187
▁點解我	-7188
▁點解阿	-7189
一律平等	-7190
一樣咁高	-7191
三個禮拜	-7192
三個細路	-7193
不過我個	-7194
之後就會	-7195
今個夏天	-7196
係一個好	-7197
係咪你㗎	-7198
係咪好忙	-7199
係紅色嘅	-7200
係黃色嘅	-7201
俾人撻咗	-7202
俾我聽吖	-7203
俾我聽呀	-7204
借呢本書	-7205
做緊啲咩	-7206
入間房度	-7207
兩個禮拜	-7208
其中一個	-7209
冇咗份工	-7210
到瞓晏覺	-7211
千祈唔好	-7212
半夜三更	-7213
卡達山語	-7214
只不過係	-7215
同你講嘢	-7216
同佢講嘢	-7217
呢個時候	-7218
咗俾我聽	-7219
咗好多錢	-7220
咗邊個呀	-7221
唔使唔該	-7222
唔記得咗	-7223
唯一一個	-7224
喊咗成晚	-7225
喺度嗰陣	-7226
喺度諗緊	-7227
喺張枱度	-7228
喺間房度	-7229
場音樂會	-7230
大我兩歲	-7231
大過日本	-7232
好好玩㗎	-7233
學生嚟㗎	-7234
就好難教	-7235
巴士司機	-7236
座建築物	-7237
得唔係好	-7238
得唔得呀	-7239
得好犀利	-7240
想要老婆	-7241
我哋可以	-7242
我班朋友	-7243
我都唔會	-7244
打俾我啦	-7245
擺咗落個	-7246
改變唔到	-7247
晏咗起身	-7248
有女朋友	-7249
望住我哋	-7250
棵聖誕樹	-7251
歷史嘅書	-7252
每日都會	-7253
男朋友係	-7254
的士司機	-7255
真係唔好	-7256
眼中嘅我	-7257
睇書睇到	-7258
瞌一陣啦	-7259
知道自己	-7260
空氣污染	-7261
粒聲唔出	-7262
聖誕老人	-7263
自己一個	-7264
行緊五十	-7265
西班牙文	-7266
見過佢喇	-7267
話俾你聽	-7268
講到好似	-7269
講緊大話	-7270
識講法文	-7271
走咗嗰陣	-7272
跑得好快	-7273
較細聲啲	-7274
返嚟㗎喇	-7275
返緊屋企	-7276
通常都係	-7277
部電視機	-7278
都係一樣	-7279
都係唔好	-7280
重要得過	-7281
鍾意打機	-7282
開心到彈	-7283
隻手落個	-7284
靚嘅語言	-7285
16646	-7286
23095	-7287
73323	-7288
74722	-7289
85222	-7290
86494	-7291
Susan	-7292
adrid	-7293
ality	-7294
aptop	-7295
astic	-7296
atoes	-7297
ature	-7298
ciety	-7299
cious	-7300
ckets	-7301
ctory	-7302
cture	-7303
earch	-7304
ength	-7305
ental	-7306
eorge	-7307
happy	-7308
hemat	-7309
hovah	-7310
icide	-7311
iling	-7312
inite	-7313
iolin	-7314
ishes	-7315
ities	-7316
ments	-7317
night	-7318
ograp	-7319
ology	-7320
opher	-7321
otect	-7322
rance	-7323
reams	-7324
rible	-7325
roach	-7326
slept	-7327
ulled	-7328
uthor	-7329
viron	-7330
▁1013	-7331
▁1016	-7332
▁1073	-7333
▁1074	-7334
▁1092	-7335
▁1174	-7336
▁1240	-7337
▁1326	-7338
▁1359	-7339
▁1444	-7340
▁1463	-7341
▁1470	-7342
▁1481	-7343
▁1490	-7344
▁1573	-7345
▁1664	-7346
▁1746	-7347
▁1832	-7348
▁1883	-7349
▁1900	-7350
▁1920	-7351
▁1929	-7352
▁1972	-7353
▁2104	-7354
▁2111	-7355
▁2271	-7356
▁2367	-7357
▁2375	-7358
▁2412	-7359
▁2415	-7360
▁2421	-7361
▁2432	-7362
▁2474	-7363
▁2482	-7364
▁2485	-7365
▁2494	-7366
▁2525	-7367
▁2529	-7368
▁2542	-7369
▁2563	-7370
▁2571	-7371
▁2575	-7372
▁2586	-7373
▁2590	-7374
▁2592	-7375
▁2616	-7376
▁2643	-7377
▁2648	-7378
▁2673	-7379
▁2692	-7380
▁2765	-7381
▁2773	-7382
▁2781	-7383
▁2806	-7384
▁2816	-7385
▁2832	-7386
▁2833	-7387
▁2835	-7388
▁2859	-7389
▁2902	-7390
▁2905	-7391
▁2920	-7392
▁2924	-7393
▁2953	-7394
▁2956	-7395
▁2972	-7396
▁2983	-7397
▁2:30	-7398
▁3055	-7399
▁3079	-7400
▁3110	-7401
▁3135	-7402
▁3199	-7403
▁3200	-7404
▁3202	-7405
▁3205	-7406
▁3211	-7407
▁3600	-7408
▁3782	-7409
▁3823	-7410
▁3866	-7411
▁3874	-7412
▁3875	-7413
▁3899	-7414
▁3909	-7415
▁3951	-7416
▁3952	-7417
▁4024	-7418
▁4053	-7419
▁4064	-7420
▁4148	-7421
▁4254	-7422
▁4289	-7423
▁4304	-7424
▁4334	-7425
▁4370	-7426
▁4525	-7427
▁4548	-7428
▁4600	-7429
▁4644	-7430
▁4692	-7431
▁4706	-7432
▁4715	-7433
▁5166	-7434
▁5173	-7435
▁5236	-7436
▁5263	-7437
▁5278	-7438
▁5286	-7439
▁5308	-7440
▁5406	-7441
▁5509	-7442
▁5673	-7443
▁5696	-7444
▁5743	-7445
▁5749	-7446
▁5783	-7447
▁5856	-7448
▁6101	-7449
▁6105	-7450
▁6107	-7451
▁6115	-7452
▁6181	-7453
▁6480	-7454
▁6488	-7455
▁6532	-7456
▁6539	-7457
▁6762	-7458
▁6882	-7459
▁6920	-7460
▁7011	-7461
▁7072	-7462
▁7507	-7463
▁7584	-7464
▁7585	-7465
▁7586	-7466
▁7873	-7467
▁8150	-7468
▁8760	-7469
▁8762	-7470
▁9084	-7471
▁9499	-7472
▁9500	-7473
▁9684	-7474
▁9982	-7475
▁9983	-7476
▁Beat	-7477
▁Didn	-7478
▁Good	-7479
▁Hong	-7480
▁Kong	-7481
▁Life	-7482
▁Mand	-7483
▁bags	-7484
▁bill	-7485
▁bite	-7486
▁boss	-7487
▁cent	-7488
▁city	-7489
▁conv	-7490
▁crow	-7491
▁damn	-7492
▁dare	-7493
▁drew	-7494
▁dump	-7495
▁enem	-7496
▁fear	-7497
▁fill	-7498
▁furi	-7499
▁goal	-7500
▁grew	-7501
▁hide	-7502
▁huge	-7503
▁jobs	-7504
▁joke	-7505
▁jour	-7506
▁keys	-7507
▁lady	-7508
▁mill	-7509
▁none	-7510
▁nose	-7511
▁note	-7512
▁ones	-7513
▁opin	-7514
▁ours	-7515
▁perc	-7516
▁poem	-7517
▁pool	-7518
▁prof	-7519
▁publ	-7520
▁puts	-7521
▁race	-7522
▁rare	-7523
▁rent	-7524
▁salt	-7525
▁serv	-7526
▁ship	-7527
▁shot	-7528
▁sons	-7529
▁sort	-7530
▁vase	-7531
▁ways	-7532
▁worn	-7533
▁你一定要	-7534
▁你仲有冇	-7535
▁你哋兩個	-7536
▁你喺邊度	-7537
▁你好似好	-7538
▁你成日都	-7539
▁你會唔會	-7540
▁佢唔單止	-7541
▁佢唔鍾意	-7542
▁佢好鍾意	-7543
▁佢識唔識	-7544
▁呢句句子	-7545
▁呢間舖頭	-7546
▁唔使擔心	-7547
▁唔好喊啦	-7548
▁我今晚想	-7549
▁我哋今晚	-7550
▁我哋兩個	-7551
▁我哋可以	-7552
▁我哋唔係	-7553
▁我唔知你	-7554
▁我唔知要	-7555
▁我好掛住	-7556
▁我搵唔到	-7557
▁我會永遠	-7558
▁我有一個	-7559
▁我諗我哋	-7560
▁我買咗部	-7561
▁我都唔知	-7562
▁我高過你	-7563
▁有人跟蹤	-7564
▁有冇攪錯	-7565
▁聽講話你	-7566
▁音樂嘅嘢	-7567
▁點解你咁	-7568
乜都睇唔到	-7569
住喺西班牙	-7570
你返屋企啦	-7571
公司度做嘢	-7572
叫我起身吖	-7573
地鐵站喺邊	-7574
埋啲咁嘅嘢	-7575
定係法國文	-7576
對身體唔好	-7577
就出聲喇喎	-7578
就走咗去瞓	-7579
屋企人一齊	-7580
我可唔可以	-7581
我真係識條	-7582
打爛咗個窗	-7583
有冇練琴呀	-7584
有好多朋友	-7585
畢咗業之後	-7586
知道個真相	-7587
買咗啲咩呀	-7588
足球校隊㗎	-7589
部手提電話	-7590
都好早起身	-7591
開唔開心呀	-7592
食早餐之前	-7593
cially	-7594
earing	-7595
geable	-7596
ically	-7597
idered	-7598
inking	-7599
inting	-7600
ithful	-7601
ording	-7602
ousand	-7603
racter	-7604
reedom	-7605
ronomy	-7606
selves	-7607
▁10687	-7608
▁10691	-7609
▁10694	-7610
▁10695	-7611
▁10761	-7612
▁10810	-7613
▁10832	-7614
▁11073	-7615
▁11350	-7616
▁11879	-7617
▁11880	-7618
▁13233	-7619
▁13266	-7620
▁13295	-7621
▁13436	-7622
▁13870	-7623
▁13934	-7624
▁14043	-7625
▁14044	-7626
▁14524	-7627
▁14898	-7628
▁15419	-7629
▁15876	-7630
▁17333	-7631
▁17460	-7632
▁17691	-7633
▁18926	-7634
▁19018	-7635
▁19123	-7636
▁19665	-7637
▁19724	-7638
▁20576	-7639
▁20651	-7640
▁20673	-7641
▁21626	-7642
▁24791	-7643
▁25403	-7644
▁31236	-7645
▁34759	-7646
▁34770	-7647
▁37696	-7648
▁38681	-7649
▁38937	-7650
▁39070	-7651
▁43203	-7652
▁43204	-7653
▁43428	-7654
▁45255	-7655
▁45810	-7656
▁48269	-7657
▁52210	-7658
▁52699	-7659
▁53608	-7660
▁53744	-7661
▁57013	-7662
▁57205	-7663
▁57340	-7664
▁57351	-7665
▁57372	-7666
▁57974	-7667
▁58039	-7668
▁60820	-7669
▁61070	-7670
▁61183	-7671
▁64742	-7672
▁64743	-7673
▁64751	-7674
▁65077	-7675
▁65325	-7676
▁65515	-7677
▁68542	-7678
▁70093	-7679
▁81800	-7680
▁87298	-7681
▁87627	-7682
▁88919	-7683
▁95414	-7684
▁99549	-7685
▁99825	-7686
▁Esper	-7687
▁Happy	-7688
▁Hurry	-7689
▁Kyoto	-7690
▁Polit	-7691
▁Right	-7692
▁Santa	-7693
▁Satur	-7694
▁Speak	-7695
▁above	-7696
▁alive	-7697
▁anger	-7698
▁babys	-7699
▁blame	-7700
▁bored	-7701
▁built	-7702
▁burgl	-7703
▁burst	-7704
▁calls	-7705
▁cance	-7706
▁climb	-7707
▁cried	-7708
▁curry	-7709
▁diary	-7710
▁disag	-7711
▁dying	-7712
▁earns	-7713
▁emerg	-7714
▁extra	-7715
▁finan	-7716
▁fixed	-7717
▁forth	-7718
▁fruit	-7719
▁guess	-7720
▁honey	-7721
▁influ	-7722
▁jelly	-7723
▁judge	-7724
▁knife	-7725
▁loses	-7726
▁magic	-7727
▁meals	-7728
▁miles	-7729
▁model	-7730
▁mustn	-7731
▁noisy	-7732
▁oppos	-7733
▁plate	-7734
▁prize	-7735
▁purse	-7736
▁reach	-7737
▁recor	-7738
▁reser	-7739
▁roses	-7740
▁sales	-7741
▁scary	-7742
▁sense	-7743
▁sheet	-7744
▁shirt	-7745
▁shops	-7746
▁stars	-7747
▁stole	-7748
▁stone	-7749
▁stood	-7750
▁sunny	-7751
▁tears	-7752
▁techn	-7753
▁toast	-7754
▁turns	-7755
▁uncle	-7756
▁upset	-7757
▁voice	-7758
▁wanna	-7759
▁weigh	-7760
▁whose	-7761
▁women	-7762
▁你今個禮拜	-7763
▁你有冇試過	-7764
▁你知唔知佢	-7765
▁你買咗啲咩	-7766
▁佢好快就會	-7767
▁啲人成日話	-7768
▁我哋到嗰陣	-7769
▁我哋要搵佢	-7770
▁我哋食咗飯	-7771
▁我唔係同志	-7772
▁我唔記得咗	-7773
▁我細個嗰陣	-7774
▁架車撞咗埋	-7775
到而家都仲未	-7776
叫咩名都唔知	-7777
唔係好鍾意佢	-7778
嘅首都馬德里	-7779
就走咗去瞓覺	-7780
最重要嘅唔係	-7781
有好多嘢要做	-7782
每個禮拜都會	-7783
生日禮物俾佢	-7784
用信用卡俾錢	-7785
禮拜日都會去	-7786
諗住做啲咩呀	-7787
講埋啲噉嘅嘢	-7788
返到屋企嗰陣	-7789
返工返成點呀	-7790
髮型屋剪頭髮	-7791
Because	-7792
achache	-7793
atively	-7794
noxious	-7795
ustomed	-7796
writing	-7797
▁273682	-7798
▁289527	-7799
▁382501	-7800
▁383646	-7801
▁402511	-7802
▁402599	-7803
▁411667	-7804
▁433859	-7805
▁472127	-7806
▁473052	-7807
▁593774	-7808
▁594335	-7809
▁610716	-7810
▁840139	-7811
▁840818	-7812
▁Canada	-7813
▁Foshan	-7814
▁George	-7815
▁Intern	-7816
▁Madrid	-7817
▁Should	-7818
▁Shunde	-7819
▁Though	-7820
▁accent	-7821
▁afford	-7822
▁author	-7823
▁barber	-7824
▁bigger	-7825
▁bottle	-7826
▁cancer	-7827
▁celebr	-7828
▁circum	-7829
▁common	-7830
▁commun	-7831
▁compos	-7832
▁consum	-7833
▁crimes	-7834
▁dating	-7835
▁differ	-7836
▁double	-7837
▁dreams	-7838
▁drinks	-7839
▁easier	-7840
▁effect	-7841
▁either	-7842
▁faster	-7843
▁finger	-7844
▁flower	-7845
▁forest	-7846
▁giving	-7847
▁handle	-7848
▁hiding	-7849
▁inside	-7850
▁insist	-7851
▁invent	-7852
▁island	-7853
▁laptop	-7854
▁leaves	-7855
▁length	-7856
▁losing	-7857
▁louder	-7858
▁master	-7859
▁merely	-7860
▁months	-7861
▁moving	-7862
▁native	-7863
▁needed	-7864
▁newcom	-7865
▁normal	-7866
▁notice	-7867
▁online	-7868
▁parked	-7869
▁philos	-7870
▁pieces	-7871
▁plants	-7872
▁played	-7873
▁plenty	-7874
▁poured	-7875
▁proper	-7876
▁pulled	-7877
▁rabbit	-7878
▁regret	-7879
▁remind	-7880
▁rights	-7881
▁safely	-7882
▁seemed	-7883
▁showed	-7884
▁shower	-7885
▁slower	-7886
▁social	-7887
▁spirit	-7888
▁spoken	-7889
▁sports	-7890
▁stamps	-7891
▁starts	-7892
▁stingy	-7893
▁strike	-7894
▁tasted	-7895
▁taught	-7896
▁temper	-7897
▁theory	-7898
▁throat	-7899
▁tongue	-7900
▁tricks	-7901
▁unlike	-7902
▁upside	-7903
▁violin	-7904
▁writer	-7905
▁你介唔介意我	-7906
▁你講緊邊個呀	-7907
▁佢唔識講英文	-7908
▁佢應承咗話會	-7909
▁壞習慣好難改	-7910
▁我哋可唔可以	-7911
▁我永遠都唔會	-7912
你可唔可以幫手	-7913
俾佢做生日禮物	-7914
會喺啲噉嘅地方	-7915
游緊水嗰個男仔	-7916
真係唔好意思呀	-7917
fortable	-7918
ological	-7919
▁1324052	-7920
▁1385222	-7921
▁1448317	-7922
▁1530724	-7923
▁1886494	-7924
▁2276927	-7925
▁2396067	-7926
▁2844435	-7927
▁3374722	-7928
▁3736584	-7929
▁4322103	-7930
▁4778564	-7931
▁5373686	-7932
▁5374523	-7933
▁6103468	-7934
▁6895020	-7935
▁7986242	-7936
▁7996126	-7937
▁8223095	-7938
▁9536317	-7939
▁9956849	-7940
▁Believe	-7941
▁However	-7942
▁Jehovah	-7943
▁Nothing	-7944
▁Staying	-7945
▁advised	-7946
▁airport	-7947
▁alcohol	-7948
▁arguing	-7949
▁article	-7950
▁carrots	-7951
▁ceiling	-7952
▁cleaner	-7953
▁concern	-7954
▁crashed	-7955
▁crowded	-7956
▁digital	-7957
▁drivers	-7958
▁efforts	-7959
▁environ	-7960
▁excited	-7961
▁falling	-7962
▁freedom	-7963
▁granted	-7964
▁haircut	-7965
▁holding	-7966
▁holiday	-7967
▁impress	-7968
▁improve	-7969
▁injured	-7970
▁journey	-7971
▁lecture	-7972
▁lending	-7973
▁letters	-7974
▁lighter	-7975
▁managed	-7976
▁matters	-7977
▁million	-7978
▁mistook	-7979
▁napping	-7980
▁obvious	-7981
▁painted	-7982
▁percent	-7983
▁physics	-7984
▁pockets	-7985
▁prepare	-7986
▁protect	-7987
▁purpose	-7988
▁respect	-7989
▁ringing	-7990
▁similar	-7991
▁sitting	-7992
▁society	-7993
▁speaker	-7994
▁spilled	-7995
▁staying	-7996
▁stomach	-7997
▁subject	-7998
▁suicide	-7999
▁teaches	-8000
▁towards	-8001
▁visited	-8002
▁washing	-8003
▁wearing	-8004
▁wedding	-8005
▁witness	-8006
▁一分鐘有六十秒	-8007
▁你可唔可以俾我	-8008
▁你識唔識講英文	-8009
▁冇心學就好難教	-8010
▁我唔係想要老婆	-8011
▁有人跟蹤緊我哋	-8012
▁聽講話你病咗喎	-8013
不過我個男朋友係	-8014
個禮拜一都喺屋企	-8015
▁Mandarin	-8016
▁Saturday	-8017
▁Whatever	-8018
▁actually	-8019
▁audience	-8020
▁bathroom	-8021
▁brothers	-8022
▁clearing	-8023
▁compared	-8024
▁continue	-8025
▁contract	-8026
▁drinking	-8027
▁entirely	-8028
▁entrance	-8029
▁explains	-8030
▁faithful	-8031
▁fatalist	-8032
▁feelings	-8033
▁holidays	-8034
▁horrible	-8035
▁hundreds	-8036
▁invented	-8037
▁laughing	-8038
▁material	-8039
▁mathemat	-8040
▁	-8041
e	-8042
o	-8043
t	-8044
a	-8045
n	-8046
i	-8047
s	-8048
h	-8049
r	-8050
5	-8051
6	-8052
1	-8053
4	-8054
3	-8055
2	-8056
7	-8057
9	-8058
l	-8059
8	-8060
0	-8061
d	-8062
u	-8063
y	-8064
m	-8065
.	-8066
。	-8067
w	-8068
g	-8069
c	-8070
f	-8071
我	-8072
p	-8073
b	-8074
I	-8075
?	-8076
k	-8077
,	-8078
'	-8079
v	-8080
唔	-8081
你	-8082
佢	-8083
T	-8084
好	-8085
係	-8086
個	-8087
咗	-8088
嘅	-8089
W	-8090
啲	-8091
呀	-8092
H	-8093
一	-8094
到	-8095
都	-8096
喺	-8097
有	-8098
哋	-8099
人	-8100
呢	-8101
㗎	-8102
會	-8103
就	-8104
S	-8105
嚟	-8106
得	-8107
喇	-8108
!	-8109
冇	-8110
嗰	-8111
日	-8112
俾	-8113
可	-8114
去	-8115
講	-8116
度	-8117
阿	-8118
嘢	-8119
"	-8120
D	-8121
多	-8122
做	-8123
以	-8124
Y	-8125
意	-8126
話	-8127
M	-8128
同	-8129
咁	-8130
想	-8131
咩	-8132
要	-8133
過	-8134
食	-8135
知	-8136
A	-8137
點	-8138
啦	-8139
C	-8140
邊	-8141
x	-8142
間	-8143
幾	-8144
睇	-8145
鍾	-8146
住	-8147
j	-8148
聽	-8149
大	-8150
生	-8151
返	-8152
學	-8153
出	-8154
緊	-8155
書	-8156
識	-8157
車	-8158
開	-8159
該	-8160
時	-8161
「	-8162
」	-8163
L	-8164
家	-8165
隻	-8166
屋	-8167
陣	-8168
本	-8169
成	-8170
自	-8171
落	-8172
吖	-8173
果	-8174
如	-8175
老	-8176
E	-8177
上	-8178
文	-8179
今	-8180
定	-8181
但	-8182
企	-8183
真	-8184
買	-8185
錢	-8186
應	-8187
見	-8188
吓	-8189
覺	-8190
諗	-8191
電	-8192
用	-8193
面	-8194
仔	-8195
最	-8196
仲	-8197
先	-8198
咪	-8199
心	-8200
而	-8201
B	-8202
己	-8203
打	-8204
之	-8205
N	-8206
P	-8207
對	-8208
晒	-8209
喎	-8210
埋	-8211
條	-8212
路	-8213
架	-8214
J	-8215
為	-8216
似	-8217
問	-8218
部	-8219
三	-8220
解	-8221
啱	-8222
噉	-8223
所	-8224
手	-8225
幫	-8226
未	-8227
經	-8228
鐘	-8229
兩	-8230
前	-8231
機	-8232
國	-8233
細	-8234
無	-8235
頭	-8236
F	-8237
q	-8238
年	-8239
z	-8240
少	-8241
後	-8242
行	-8243
晚	-8244
瞓	-8245
禮	-8246
信	-8247
起	-8248
事	-8249
女	-8250
樣	-8251
士	-8252
搵	-8253
十	-8254
叫	-8255
發	-8256
走	-8257
O	-8258
入	-8259
地	-8260
天	-8261
工	-8262
張	-8263
乜	-8264
法	-8265
友	-8266
G	-8267
媽	-8268
已	-8269
靚	-8270
快	-8271
實	-8272
早	-8273
身	-8274
飲	-8275
使	-8276
寫	-8277
物	-8278
水	-8279
拉	-8280
朋	-8281
又	-8282
記	-8283
名	-8284
道	-8285
英	-8286
拜	-8287
望	-8288
美	-8289
音	-8290
明	-8291
次	-8292
死	-8293
中	-8294
全	-8295
分	-8296
尋	-8297
錯	-8298
公	-8299
小	-8300
世	-8301
因	-8302
爸	-8303
等	-8304
房	-8305
每	-8306
不	-8307
將	-8308
餐	-8309
份	-8310
樂	-8311
班	-8312
件	-8313
然	-8314
蕾	-8315
-	-8316
下	-8317
五	-8318
歌	-8319
淨	-8320
字	-8321
完	-8322
巴	-8323
搞	-8324
氣	-8325
色	-8326
試	-8327
通	-8328
題	-8329
火	-8330
球	-8331
聖	-8332
K	-8333
力	-8334
方	-8335
相	-8336
能	-8337
誕	-8338
讀	-8339
二	-8340
夠	-8341
始	-8342
師	-8343
攞	-8344
整	-8345
朝	-8346
聲	-8347
高	-8348
其	-8349
收	-8350
街	-8351
口	-8352
差	-8353
;	-8354
借	-8355
再	-8356
單	-8357
坐	-8358
場	-8359
外	-8360
新	-8361
眼	-8362
難	-8363
囉	-8364
正	-8365
理	-8366
結	-8367
語	-8368
太	-8369
思	-8370
比	-8371
雪	-8372
加	-8373
山	-8374
常	-8375
晏	-8376
第	-8377
門	-8378
齊	-8379
森	-8380
界	-8381
哥	-8382
唱	-8383
由	-8384
男	-8385
:	-8386
喊	-8387
狗	-8388
近	-8389
重	-8390
飛	-8391
句	-8392
教	-8393
校	-8394
琴	-8395
遠	-8396
馬	-8397
、	-8398
功	-8399
包	-8400
擺	-8401
支	-8402
月	-8403
期	-8404
視	-8405
計	-8406
飯	-8407
介	-8408
動	-8409
啫	-8410
愛	-8411
玩	-8412
種	-8413
耐	-8414
肯	-8415
花	-8416
R	-8417
他	-8418
貓	-8419
雨	-8420
低	-8421
六	-8422
放	-8423
星	-8424
煙	-8425
舊	-8426
驚	-8427
魚	-8428
咋	-8429
失	-8430
嬲	-8431
步	-8432
變	-8433
酒	-8434
醫	-8435
利	-8436
咖	-8437
壞	-8438
戲	-8439
杯	-8440
準	-8441
蛋	-8442
揸	-8443
撞	-8444
改	-8445
數	-8446
現	-8447
留	-8448
糕	-8449
紙	-8450
著	-8451
認	-8452
連	-8453
首	-8454
V	-8455
夜	-8456
子	-8457
忙	-8458
感	-8459
游	-8460
當	-8461
興	-8462
遲	-8463
啡	-8464
易	-8465
歲	-8466
白	-8467
課	-8468
豆	-8469
四	-8470
封	-8471
帶	-8472
彈	-8473
影	-8474
筆	-8475
肚	-8476
跟	-8477
套	-8478
情	-8479
搭	-8480
牙	-8481
病	-8482
粒	-8483
西	-8484
言	-8485
跑	-8486
送	-8487
傾	-8488
八	-8489
半	-8490
司	-8491
廿	-8492
攰	-8493
永	-8494
號	-8495
賣	-8496
辣	-8497
長	-8498
需	-8499
髮	-8500
黑	-8501
作	-8502
偷	-8503
報	-8504
婚	-8505
座	-8506
慢	-8507
掂	-8508
撚	-8509
於	-8510
牛	-8511
空	-8512
站	-8513
衫	-8514
謝	-8515
閒	-8516
館	-8517
啊	-8518
承	-8519
把	-8520
枱	-8521
熱	-8522
特	-8523
節	-8524
網	-8525
請	-8526
閂	-8527
雖	-8528
頂	-8529
餓	-8530
佬	-8531
來	-8532
保	-8533
傷	-8534
卡	-8535
叻	-8536
嗱	-8537
嘛	-8538
圖	-8539
希	-8540
東	-8541
添	-8542
畀	-8543
算	-8544
至	-8545
茶	-8546
袋	-8547
親	-8548
錶	-8549
附	-8550
雞	-8551
交	-8552
凍	-8553
別	-8554
平	-8555
殺	-8556
決	-8557
波	-8558
海	-8559
紅	-8560
線	-8561
考	-8562
證	-8563
U	-8564
七	-8565
主	-8566
位	-8567
受	-8568
妹	-8569
婆	-8570
客	-8571
德	-8572
排	-8573
提	-8574
擔	-8575
斯	-8576
消	-8577
清	-8578
神	-8579
蚊	-8580
表	-8581
裏	-8582
貴	-8583
銀	-8584
關	-8585
任	-8586
劃	-8587
原	-8588
味	-8589
命	-8590
園	-8591
安	-8592
尾	-8593
拎	-8594
探	-8595
洗	-8596
湯	-8597
漏	-8598
濟	-8599
爾	-8600
百	-8601
窗	-8602
笑	-8603
答	-8604
腦	-8605
腳	-8606
舖	-8607
裝	-8608
論	-8609
費	-8610
超	-8611
代	-8612
令	-8613
估	-8614
候	-8615
千	-8616
古	-8617
合	-8618
堂	-8619
市	-8620
急	-8621
慣	-8622
指	-8623
樹	-8624
母	-8625
油	-8626
滿	-8627
煩	-8628
的	-8629
目	-8630
者	-8631
賽	-8632
越	-8633
趣	-8634
跳	-8635
達	-8636
體	-8637
⋯	-8638
九	-8639
備	-8640
典	-8641
切	-8642
唧	-8643
在	-8644
型	-8645
怪	-8646
憎	-8647
更	-8648
格	-8649
活	-8650
盡	-8651
突	-8652
窿	-8653
習	-8654
肥	-8655
萬	-8656
隔	-8657
雀	-8658
鬼	-8659
依	-8660
假	-8661
刻	-8662
即	-8663
只	-8664
掛	-8665
散	-8666
根	-8667
歐	-8668
洲	-8669
溫	-8670
演	-8671
爛	-8672
直	-8673
社	-8674
羅	-8675
菜	-8676
蘋	-8677
裙	-8678
襯	-8679
謂	-8680
還	-8681
除	-8682
響	-8683
類	-8684
光	-8685
勁	-8686
匙	-8687
員	-8688
執	-8689
基	-8690
姆	-8691
容	-8692
廣	-8693
廳	-8694
建	-8695
性	-8696
旅	-8697
業	-8698
污	-8699
照	-8700
爆	-8701
瞌	-8702
穿	-8703
約	-8704
肉	-8705
背	-8706
處	-8707
郁	-8708
醒	-8709
院	-8710
隨	-8711
鞋	-8712
風	-8713
京	-8714
修	-8715
剪	-8716
告	-8717
喂	-8718
塊	-8719
夢	-8720
奇	-8721
存	-8722
室	-8723
察	-8724
屌	-8725
悶	-8726
政	-8727
板	-8728
楚	-8729
樓	-8730
減	-8731
燈	-8732
畫	-8733
碗	-8734
舉	-8735
角	-8736
說	-8737
議	-8738
轉	-8739
遊	-8740
遮	-8741
鎖	-8742
鏡	-8743
險	-8744
離	-8745
零	-8746
順	-8747
頓	-8748
養	-8749
麻	-8750
凳	-8751
努	-8752
周	-8753
嘥	-8754
址	-8755
夏	-8756
姐	-8757
床	-8758
必	-8759
息	-8760
接	-8761
揀	-8762
服	-8763
棵	-8764
橋	-8765
櫃	-8766
沖	-8767
涼	-8768
炒	-8769
爭	-8770
痛	-8771
皮	-8772
着	-8773
碟	-8774
碼	-8775
籬	-8776
綠	-8777
義	-8778
警	-8779
贏	-8780
踩	-8781
辦	-8782
進	-8783
隊	-8784
驗	-8785
麵	-8786
仆	-8787
便	-8788
像	-8789
內	-8790
危	-8791
吸	-8792
唯	-8793
嗌	-8794
嘈	-8795
嘞	-8796
塞	-8797
幅	-8798
式	-8799
戴	-8800
抌	-8801
拍	-8802
持	-8803
搬	-8804
晝	-8805
案	-8806
止	-8807
歷	-8808
沙	-8809
煮	-8810
石	-8811
票	-8812
秒	-8813
精	-8814
糖	-8815
絕	-8816
練	-8817
膽	-8818
護	-8819
責	-8820
趕	-8821
辭	-8822
運	-8823
郵	-8824
雜	-8825
乾	-8826
亞	-8827
化	-8828
區	-8829
反	-8830
台	-8831
右	-8832
嘗	-8833
噃	-8834
境	-8835
奶	-8836
專	-8837
尼	-8838
帽	-8839
廁	-8840
形	-8841
彩	-8842
愈	-8843
故	-8844
村	-8845
棄	-8846
求	-8847
燒	-8848
牆	-8849
片	-8850
犯	-8851
環	-8852
甩	-8853
畢	-8854
硬	-8855
程	-8856
篇	-8857
簡	-8858
粉	-8859
級	-8860
紹	-8861
聞	-8862
舒	-8863
華	-8864
蕩	-8865
足	-8866
跌	-8867
較	-8868
速	-8869
釋	-8870
金	-8871
集	-8872
震	-8873
靜	-8874
靠	-8875
預	-8876
顧	-8877
乞	-8878
亂	-8879
亦	-8880
伯	-8881
倍	-8882
停	-8883
共	-8884
冬	-8885
冰	-8886
印	-8887
參	-8888
取	-8889
史	-8890
向	-8891
和	-8892
品	-8893
啤	-8894
嚴	-8895
回	-8896
圍	-8897
城	-8898
埲	-8899
堡	-8900
壓	-8901
夫	-8902
害	-8903
密	-8904
左	-8905
布	-8906
戒	-8907
扮	-8908
拿	-8909
攪	-8910
林	-8911
梗	-8912
極	-8913
標	-8914
模	-8915
樽	-8916
滑	-8917
灘	-8918
熄	-8919
牌	-8920
登	-8921
監	-8922
短	-8923
箱	-8924
簽	-8925
總	-8926
續	-8927
耳	-8928
舞	-8929
藥	-8930
蘭	-8931
蠢	-8932
襪	-8933
詩	-8934
貨	-8935
資	-8936
輕	-8937
造	-8938
選	-8939
鐵	-8940
陽	-8941
雙	-8942
非	-8943
鬧	-8944
黃	-8945
黎	-8946
龍	-8947
㩒	-8948
仗	-8949
何	-8950
例	-8951
倒	-8952
值	-8953
傳	-8954
價	-8955
円	-8956
冠	-8957
冧	-8958
冷	-8959
初	-8960
剩	-8961
副	-8962
助	-8963
勤	-8964
吹	-8965
呃	-8966
哦	-8967
喱	-8968
嘩	-8969
夾	-8970
寄	-8971
底	-8972
律	-8973
從	-8974
恐	-8975
懷	-8976
或	-8977
拖	-8978
捉	-8979
據	-8980
景	-8981
暖	-8982
朱	-8983
染	-8984
桶	-8985
梳	-8986
概	-8987
槍	-8988
權	-8989
歡	-8990
民	-8991
泊	-8992
流	-8993
浪	-8994
湊	-8995
漢	-8996
熟	-8997
版	-8998
犀	-8999
獨	-9000
王	-9001
眾	-9002
祈	-9003
築	-9004
系	-9005
統	-9006
罪	-9007
耶	-9008
育	-9009
船	-9010
芝	-9011
草	-9012
術	-9013
覆	-9014
誌	-9015
譯	-9016
質	-9017
賺	-9018
輸	-9019
迎	-9020
野	-9021
鋼	-9022
錄	-9023
陪	-9024
頸	-9025
香	-9026
$	-9027
並	-9028
串	-9029
了	-9030
伸	-9031
俬	-9032
偈	-9033
健	-9034
傢	-9035
傻	-9036
儲	-9037
免	-9038
創	-9039
吞	-9040
唞	-9041
嘴	-9042
噪	-9043
墨	-9044
奮	-9045
威	-9046
孤	-9047
局	-9048
店	-9049
康	-9050
廚	-9051
怕	-9052
怖	-9053
悔	-9054
慮	-9055
戶	-9056
批	-9057
拗	-9058
插	-9059
撈	-9060
撻	-9061
擇	-9062
救	-9063
料	-9064
暈	-9065
暗	-9066
棒	-9067
池	-9068
河	-9069
治	-9070
測	-9071
湖	-9072
激	-9073
煲	-9074
爬	-9075
爺	-9076
玫	-9077
瑰	-9078
甜	-9079
盲	-9080
祝	-9081
科	-9082
秘	-9083
究	-9084
窮	-9085
立	-9086
簿	-9087
粗	-9088
糟	-9089
純	-9090
紮	-9091
繼	-9092
缸	-9093
羹	-9094
良	-9095
藍	-9096
衣	-9097
衰	-9098
誠	-9099
象	-9100
貌	-9101
貼	-9102
跡	-9103
蹤	-9104
軍	-9105
里	-9106
量	-9107
釣	-9108
鉛	-9109
靈	-9110
韓	-9111
願	-9112
駕	-9113
駛	-9114
騎	-9115
𨋢	-9116
互	-9117
亮	-9118
付	-9119
佛	-9120
俄	-9121
俗	-9122
倫	-9123
兄	-9124
克	-9125
兔	-9126
兵	-9127
准	-9128
刀	-9129
制	-9130
刷	-9131
剃	-9132
午	-9133
卒	-9134
各	-9135
吉	-9136
吠	-9137
呔	-9138
咭	-9139
哈	-9140
喉	-9141
器	-9142
噶	-9143
塔	-9144
姊	-9145
嫌	-9146
寧	-9147
寸	-9148
居	-9149
屍	-9150
屎	-9151
島	-9152
帝	-9153
府	-9154
廢	-9155
引	-9156
弟	-9157
弱	-9158
待	-9159
志	-9160
忘	-9161
忠	-9162
念	-9163
恤	-9164
悉	-9165
截	-9166
投	-9167
捐	-9168
掉	-9169
掘	-9170
掣	-9171
控	-9172
搶	-9173
敗	-9174
春	-9175
是	-9176
晨	-9177
普	-9178
曬	-9179
曲	-9180
枝	-9181
查	-9182
榮	-9183
歉	-9184
沉	-9185
況	-9186
浴	-9187
淋	-9188
深	-9189
滾	-9190
澳	-9191
濕	-9192
灰	-9193
烏	-9194
燭	-9195
爐	-9196
父	-9197
猛	-9198
率	-9199
瑞	-9200
瑪	-9201
瓜	-9202
產	-9203
疑	-9204
破	-9205
碎	-9206
福	-9207
竇	-9208
竟	-9209
章	-9210
米	-9211
紀	-9212
終	-9213
絡	-9214
絲	-9215
維	-9216
聯	-9217
聰	-9218
職	-9219
脫	-9220
苦	-9221
茄	-9222
蔔	-9223
蘿	-9224
蟲	-9225
褲	-9226
觀	-9227
訂	-9228
訊	-9229
誉	-9230
負	-9231
跣	-9232
踢	-9233
辛	-9234
退	-9235
途	-9236
逢	-9237
逼	-9238
遇	-9239
鄉	-9240
領	-9241
魔	-9242
鼠	-9243
齋	-9244
/	-9245
X	-9246
—	-9247
“	-9248
”	-9249
为	-9250
乘	-9251
乳	-9252
享	-9253
仍	-9254
休	-9255
供	-9256
兒	-9257
冚	-9258
刨	-9259
則	-9260
勝	-9261
北	-9262
匿	-9263
卅	-9264
博	-9265
呼	-9266
哩	-9267
哲	-9268
售	-9269
啖	-9270
啵	-9271
噏	-9272
嚇	-9273
嚿	-9274
坦	-9275
域	-9276
堆	-9277
塵	-9278
奧	-9279
妒	-9280
姓	-9281
宇	-9282
官	-9283
宙	-9284
宜	-9285
寒	-9286
寵	-9287
尊	-9288
屬	-9289
帳	-9290
幸	-9291
廠	-9292
忌	-9293
忍	-9294
恭	-9295
惡	-9296
慳	-9297
慶	-9298
懶	-9299
戰	-9300
才	-9301
扯	-9302
找	-9303
技	-9304
抄	-9305
抖	-9306
折	-9307
握	-9308
搏	-9309
擁	-9310
操	-9311
效	-9312
敬	-9313
敲	-9314
斷	-9315
昆	-9316
智	-9317
朗	-9318
某	-9319
橫	-9320
檔	-9321
檯	-9322
檸	-9323
款	-9324
段	-9325
毛	-9326
汁	-9327
泰	-9328
泳	-9329
港	-9330
渴	-9331
溝	-9332
滴	-9333
炸	-9334
点	-9335
獄	-9336
玻	-9337
珠	-9338
璃	-9339
田	-9340
番	-9341
痕	-9342
痴	-9343
痾	-9344
益	-9345
盒	-9346
睡	-9347
督	-9348
瞞	-9349
私	-9350
移	-9351
符	-9352
粹	-9353
糧	-9354
績	-9355
罐	-9356
罕	-9357
翻	-9358
膠	-9359
莉	-9360
菌	-9361
蕃	-9362
蜜	-9363
血	-9364
衝	-9365
被	-9366
褸	-9367
規	-9368
訓	-9369
誤	-9370
調	-9371
諾	-9372
讓	-9373
豪	-9374
財	-9375
賊	-9376
賠	-9377
贊	-9378
赤	-9379
載	-9380
逆	-9381
適	-9382
酸	-9383
醉	-9384
鈕	-9385
際	-9386
霧	-9387
青	-9388
頁	-9389
骨	-9390
鬚	-9391
鮮	-9392
鹹	-9393
鹽	-9394
黐	-9395
鼻	-9396
&	-9397
@	-9398
Q	-9399
·	-9400
ö	-9401
’	-9402
㷫	-9403
且	-9404
个	-9405
乸	-9406
伊	-9407
会	-9408
佳	-9409
侍	-9410
侮	-9411
侵	-9412
偵	-9413
兜	-9414
具	-9415
冒	-9416
函	-9417
列	-9418
劵	-9419
勞	-9420
匹	-9421
升	-9422
協	-9423
卷	-9424
厚	-9425
厭	-9426
叔	-9427
另	-9428
叭	-9429
吟	-9430
呻	-9431
咕	-9432
咦	-9433
咬	-9434
咯	-9435
哨	-9436
啞	-9437
善	-9438
喜	-9439
喵	-9440
嗎	-9441
嗤	-9442
嘆	-9443
噌	-9444
噩	-9445
噴	-9446
嚕	-9447
嚨	-9448
囂	-9449
固	-9450
圓	-9451
團	-9452
坑	-9453
填	-9454
守	-9455
宵	-9456
宿	-9457
富	-9458
尖	-9459
尿	-9460
層	-9461
州	-9462
巨	-9463
巾	-9464
师	-9465
席	-9466
幹	-9467
幻	-9468
廟	-9469
徒	-9470
徵	-9471
忽	-9472
怨	-9473
扑	-9474
抗	-9475
抵	-9476
抹	-9477
抽	-9478
拆	-9479
拒	-9480
招	-9481
挨	-9482
捧	-9483
捨	-9484
授	-9485
推	-9486
掹	-9487
換	-9488
揭	-9489
搣	-9490
搽	-9491
摩	-9492
摸	-9493
撕	-9494
擊	-9495
擦	-9496
擰	-9497
擳	-9498
攤	-9499
敏	-9500
敢	-9501
敦	-9502
敵	-9503
斤	-9504
旗	-9505
时	-9506
晴	-9507
暑	-9508
曹	-9509
曾	-9510
木	-9511
朵	-9512
李	-9513
材	-9514
束	-9515
来	-9516
枕	-9517
柒	-9518
核	-9519
梯	-9520
植	-9521
橙	-9522
櫈	-9523
殘	-9524
毯	-9525
汗	-9526
汰	-9527
沊	-9528
泡	-9529
注	-9530
洋	-9531
洛	-9532
派	-9533
浸	-9534
淘	-9535
淚	-9536
淺	-9537
渾	-9538
漫	-9539
漸	-9540
潔	-9541
潮	-9542
濱	-9543
瀉	-9544
煤	-9545
熊	-9546
燶	-9547
爲	-9548
爵	-9549
爽	-9550
牧	-9551
狼	-9552
猩	-9553
獎	-9554
獲	-9555
甘	-9556
症	-9557
癌	-9558
癖	-9559
癡	-9560
盔	-9561
盛	-9562
盞	-9563
矮	-9564
砰	-9565
碌	-9566
確	-9567
磅	-9568
示	-9569
租	-9570
稅	-9571
稱	-9572
穩	-9573
笔	-9574
笠	-9575
筑	-9576
筷	-9577
箭	-9578
篤	-9579
籍	-9580
籠	-9581
籤	-9582
粥	-9583
粵	-9584
納	-9585
紐	-9586
索	-9587
紫	-9588
組	-9589
綢	-9590
緒	-9591
繩	-9592
罷	-9593
聚	-9594
胃	-9595
胎	-9596
脷	-9597
膏	-9598
與	-9599
芙	-9600
荷	-9601
萄	-9602
葡	-9603
葱	-9604
蒞	-9605
蓋	-9606
蔬	-9607
蕉	-9608
薄	-9609
薯	-9610
藝	-9611
藩	-9612
蘇	-9613
虽	-9614
蛤	-9615
蜂	-9616
螞	-9617
蠟	-9618
複	-9619
觸	-9620
設	-9621
誇	-9622
誓	-9623
誼	-9624
諒	-9625
諜	-9626
諺	-9627
謀	-9628
譜	-9629
讚	-9630
豬	-9631
販	-9632
貪	-9633
貿	-9634
赢	-9635
赫	-9636
軟	-9637
輪	-9638
輯	-9639
辱	-9640
边	-9641
迫	-9642
追	-9643
逐	-9644
鄰	-9645
酪	-9646
醬	-9647
鈴	-9648
銷	-9649
錫	-9650
鏟	-9651
鐳	-9652
閃	-9653
闊	-9654
间	-9655
防	-9656
降	-9657
限	-9658
陸	-9659
隱	-9660
露	-9661
静	-9662
額	-9663
顏	-9664
顯	-9665
飽	-9666
飾	-9667
餵	-9668
餸	-9669
駁	-9670
騮	-9671
鬥	-9672
魷	-9673
鳩	-9674
鴨	-9675
麥	-9676
鼓	-9677
龜	-9678
𠸉	-9679
𠽌	-9680
𥄫	-9681
𪙛	-9682
%	-9683
)	-9684
Z	-9685
é	-9686
《	-9687
》	-9688
『	-9689
』	-9690
㖡	-9691
㖭	-9692
丁	-9693
东	-9694
丸	-9695
丹	-9696
丽	-9697
久	-9698
书	-9699
于	-9700
亚	-9701
亡	-9702
亭	-9703
仇	-9704
仙	-9705
仿	-9706
伏	-9707
伙	-9708
伤	-9709
伴	-9710
体	-9711
侯	-9712
侶	-9713
俱	-9714
倉	-9715
們	-9716
倾	-9717
傅	-9718
儉	-9719
優	-9720
冤	-9721
净	-9722
凝	-9723
几	-9724
凶	-9725
刁	-9726
判	-9727
券	-9728
刺	-9729
劇	-9730
劈	-9731
劍	-9732
劏	-9733
劑	-9734
劝	-9735
劫	-9736
勉	-9737
勊	-9738
勒	-9739
勵	-9740
勸	-9741
匆	-9742
匈	-9743
卑	-9744
单	-9745
南	-9746
厘	-9747
厦	-9748
叉	-9749
发	-9750
叮	-9751
吊	-9752
吗	-9753
君	-9754
吤	-9755
吧	-9756
吮	-9757
吽	-9758
呑	-9759
呵	-9760
咧	-9761
哎	-9762
哺	-9763
哼	-9764
哽	-9765
唇	-9766
唓	-9767
商	-9768
啩	-9769
喐	-9770
喪	-9771
喬	-9772
喼	-9773
嗨	-9774
嗮	-9775
嗲	-9776
嘔	-9777
噎	-9778
噚	-9779
嚏	-9780
嚹	-9781
囈	-9782
囚	-9783
困	-9784
圈	-9785
土	-9786
圾	-9787
均	-9788
垃	-9789
堅	-9790
堪	-9791
塑	-9792
墊	-9793
增	-9794
壩	-9795
壽	-9796
夷	-9797
奈	-9798
奢	-9799
奴	-9800
她	-9801
妝	-9802
委	-9803
姨	-9804
娛	-9805
娶	-9806
季	-9807
学	-9808
孭	-9809
宗	-9810
寂	-9811
寞	-9812
寶	-9813
射	-9814
将	-9815
尤	-9816
展	-9817
属	-9818
岀	-9819
峰	-9820
幣	-9821
干	-9822
幼	-9823
庭	-9824
廈	-9825
廷	-9826
开	-9827
弊	-9828
弦	-9829
強	-9830
彼	-9831
征	-9832
循	-9833
微	-9834
怡	-9835
恩	-9836
惗	-9837
惜	-9838
惟	-9839
惠	-9840
愚	-9841
愧	-9842
態	-9843
慌	-9844
慘	-9845
慚	-9846
慧	-9847
憂	-9848
憶	-9849
戀	-9850
戇	-9851
扎	-9852
扒	-9853
抑	-9854
披	-9855
押	-9856
拃	-9857
拔	-9858
括	-9859
拯	-9860
挑	-9861
挪	-9862
捷	-9863
捽	-9864
掌	-9865
掙	-9866
掟	-9867
揞	-9868
援	-9869
揾	-9870
搓	-9871
摷	-9872
摺	-9873
摻	-9874
撥	-9875
撩	-9876
撬	-9877
播	-9878
撳	-9879
擘	-9880
擬	-9881
擴	-9882
攝	-9883
攻	-9884
斜	-9885
斟	-9886
斧	-9887
施	-9888
无	-9889
既	-9890
暫	-9891
曱	-9892
替	-9893
末	-9894
杆	-9895
杉	-9896
条	-9897
杳	-9898
析	-9899
枯	-9900
柄	-9901
柏	-9902
柴	-9903
栽	-9904
桔	-9905
梘	-9906
梨	-9907
械	-9908
棋	-9909
棟	-9910
椰	-9911
構	-9912
樖	-9913
橡	-9914
檢	-9915
檬	-9916
欄	-9917
武	-9918
殊	-9919
毒	-9920
毫	-9921
氈	-9922
氏	-9923
气	-9924
氛	-9925
氹	-9926
江	-9927
汤	-9928
汽	-9929
沒	-9930
沿	-9931
泉	-9932
泥	-9933
洞	-9934
浮	-9935
液	-9936
淡	-9937
淥	-9938
淵	-9939
渡	-9940
湧	-9941
溜	-9942
溶	-9943
滋	-9944
滮	-9945
漕	-9946
潛	-9947
濃	-9948
瀨	-9949
炮	-9950
烚	-9951
烹	-9952
焗	-9953
燕	-9954
營	-9955
爹	-9956
牲	-9957
犧	-9958
狹	-9959
獵	-9960
獸	-9961
玛	-9962
珍	-9963
琳	-9964
瓊	-9965
甲	-9966
甴	-9967
电	-9968
甸	-9969
畏	-9970
略	-9971
疊	-9972
疾	-9973
瘀	-9974
瘡	-9975
癮	-9976
癲	-9977
皺	-9978
盆	-9979
盟	-9980
眉	-9981
看	-9982
眠	-9983
睥	-9984
睬	-9985
研	-9986
碳	-9987
磚	-9988
磨	-9989
磯	-9990
礦	-9991
礼	-9992
祭	-9993
禁	-9994
禍	-9995
